nep3 1 C 
cutoff 6 4
n_max 8 8
l_max 4 2
ANN 80 0
  1.0483462e-01
  4.1000266e-04
  1.3602136e-02
  1.3855317e-01
  1.8508282e-01
  1.3017642e+00
  7.9225227e-02
 -6.8951353e-02
  9.0511575e-02
  4.5565587e-02
 -1.4675201e-01
 -3.3706269e-01
  9.4528668e-02
 -5.3141657e-02
 -7.9766894e-03
  1.3270560e-01
  2.5443971e-01
 -1.5415339e-01
  1.6245767e-02
  1.2320983e-01
  1.9841553e-01
 -2.1277559e-01
  4.7751480e-01
 -3.6372557e-01
 -1.5591913e-01
  2.8098211e-02
 -1.0432668e-02
  1.3204790e-02
  2.4853647e-01
  1.0349329e-01
  1.7766339e-01
 -1.6691715e-01
 -1.5207247e-01
 -1.7928085e-01
 -1.5309217e-02
 -7.2904117e-02
  2.5429046e-01
 -3.2904062e-01
 -1.0507452e-01
  3.5157166e-03
  3.8939884e-01
  2.7764130e-01
 -6.5425402e-01
 -1.9514510e-01
 -1.6730335e-03
  2.1615285e-01
  7.6101579e-02
  1.1911408e-01
  4.4490762e-02
  1.4833644e-01
 -3.3657592e-02
 -1.8537848e-01
 -1.3336323e-02
  2.1354416e-01
  9.9526608e-01
 -2.0487767e-01
 -2.5698286e-02
  4.4609547e-02
  2.9180828e-01
  2.5119513e-01
 -7.8349896e-02
  4.9152218e-02
 -8.0355108e-01
  1.4759487e-01
  9.6770495e-02
 -3.8301628e-02
 -9.1999125e-01
  2.7051726e-02
  1.9878638e-01
  2.1638793e-01
  2.3066580e-02
 -2.3524074e-01
 -2.4581647e-01
  1.1038257e-01
  3.1925973e-02
 -1.3562663e-01
  6.4364022e-01
  3.4402135e-01
  7.8487024e-03
 -1.2911299e-01
  1.9987060e-02
 -6.6671228e-01
  4.9182507e-01
  1.4975548e-01
 -7.1587875e-02
  6.0602698e-02
 -1.4474900e-03
  6.9210283e-02
 -6.9329202e-02
 -2.7364764e-02
  2.4410720e-01
 -4.7418550e-03
  1.9869998e-01
  5.5838418e-01
  1.9182278e-01
 -3.1072574e-02
 -9.8315820e-02
 -1.8035825e-01
 -9.5320746e-02
 -3.3567790e-02
  2.7393666e-01
 -2.8571168e-01
  3.4311537e-02
  1.1806431e-01
 -2.4863970e-01
 -7.7670515e-02
 -2.6342610e-02
 -5.9765842e-02
 -1.2234209e-01
  1.4120854e+00
 -3.5357955e-01
  3.2355765e-01
  9.2384197e-02
  1.5656655e-01
  1.8054672e-02
  1.1364759e-01
 -7.2811805e-02
  9.9147618e-02
  2.4851229e+00
 -2.5335324e-01
 -2.4533723e-02
 -1.0662377e-01
 -2.0074844e-03
 -1.8102254e-01
  3.8719345e-02
 -2.9749632e-01
 -2.0429157e-02
 -5.7949115e-02
  2.6191109e-01
 -6.6782430e-02
  1.9583777e-03
 -1.9344892e-01
  6.2842906e-02
 -7.7966467e-02
 -1.4249654e-01
 -1.4181842e-02
 -4.9866623e-01
 -9.5167682e-02
  1.4074621e-01
 -3.5850061e-03
 -4.4792780e-01
  3.4159067e-01
  2.9201454e-01
  2.9690278e-01
  6.1177377e-02
  2.5889263e-02
  1.1480489e-01
 -3.1955132e-01
 -4.8664607e-02
  1.2406884e-02
  3.8390048e-03
  4.7863731e-01
  1.1014667e-01
  1.0869813e-01
  5.3497180e-03
 -9.6414435e-01
  1.4948222e-01
 -1.0417670e+00
  2.8582036e-02
  2.4919508e-01
  1.0234617e-01
  3.0676126e-02
  4.5520225e-01
 -2.7163899e-01
 -2.3664667e-01
  2.5950471e-01
 -8.6820535e-03
  3.2952562e-02
 -4.1184890e-01
 -3.5415206e-02
  6.2754035e-02
  9.1469452e-02
  8.0915116e-02
  2.7093688e-01
 -1.9753864e-02
  1.4231992e-01
 -3.1624481e-01
 -8.1049331e-02
  7.0078686e-02
  8.4096238e-02
 -1.1140408e-01
  6.0319655e-02
  7.1586343e-03
 -1.0763080e-01
 -6.5169550e-02
  1.6729672e-02
 -8.0467835e-02
  3.6296554e-02
 -2.9723248e-01
  2.7237594e-01
 -1.9410850e-01
 -7.4317930e-03
  1.4440689e-02
 -1.7311992e-01
  2.7508335e-02
 -5.1986970e-02
  8.5983664e-02
  9.3917094e-02
  1.4163437e-01
 -1.4731471e-01
  1.1036202e-01
  1.1252178e-01
 -3.1317890e-01
 -4.1801140e-02
 -1.5899081e-02
 -1.0237774e-01
  1.4686684e-01
 -8.6782083e-02
 -3.6957729e-01
  5.0082568e-02
  4.3316223e-02
 -1.6132401e-01
 -4.7157872e-02
  8.1873909e-02
  2.3340421e-02
 -3.1428926e-02
  4.1234963e-02
 -4.6458658e-02
 -2.5194619e+00
  1.2728114e+00
  5.9437704e-01
  4.3496916e-01
  8.4626240e-01
  2.4271946e+00
 -4.1661868e+00
 -2.3663042e+00
 -2.2376275e+00
  1.4661845e+00
  1.8121031e-01
 -1.1372285e+00
 -2.7579916e-01
 -2.2661662e+00
 -1.6606246e-01
  1.9879693e-01
  4.6261215e-01
 -6.7275333e-01
  2.7209289e+00
  1.3196190e-01
  7.5188011e-02
 -2.7825537e-01
  1.9404706e+00
  1.0129952e+00
 -1.8256592e+00
 -1.8878100e+00
 -3.2986262e+00
  2.7928696e+00
 -1.5303055e+00
 -5.8821317e-02
 -5.3295529e-01
  4.7364349e+00
 -4.0202098e+00
 -2.0098831e-01
  2.1457075e-01
 -6.9668269e-01
 -2.4103874e-02
 -2.9855159e-01
  8.0737841e-01
 -5.6849545e-01
  2.6163163e+00
  6.9268888e-01
 -3.5528636e+00
 -9.3742937e-02
  1.0223223e+00
 -5.1698315e-01
  9.1169387e-02
  5.5962294e-02
  1.5458319e+00
 -1.7648102e+00
 -1.3567083e-01
  4.6495950e-01
 -3.9895847e+00
 -2.3816385e+00
 -6.5207332e-01
 -5.2977282e-01
 -2.3499224e+00
  1.5298176e+00
  7.3632801e-01
  9.0517443e-01
 -1.7169906e+00
  1.2565706e+00
  6.8723762e-01
 -1.2816603e+00
  1.4446040e+00
  3.2792935e-01
  3.0919991e+00
 -1.1667472e+00
  1.3351524e+00
 -1.6766591e+00
  1.4660308e+00
 -1.4960536e+00
  1.1936311e+00
 -2.1102662e+00
 -2.0850287e-01
  1.8654951e+00
 -5.1096601e+00
  1.0390284e+00
  5.4220343e-01
 -2.7914909e-01
  6.7647231e-01
  1.8259537e+00
 -2.4513335e+00
 -1.2077288e-01
  6.5230143e-01
  7.2126728e-01
 -9.8330957e-01
 -2.4014220e-01
 -1.9442900e+00
 -2.1685381e+00
 -2.3663399e+00
  4.4751368e+00
  3.3299214e-01
 -2.9006529e-01
  4.0892401e-01
 -3.3622643e-01
  1.8301582e+00
 -5.9766656e-01
 -2.8069934e-01
  1.3871026e+00
  1.5400942e-01
 -1.5010439e-01
  1.2312313e-01
  9.2558861e-01
  1.9484098e-01
 -1.0813582e-01
 -1.6838092e-01
 -2.6534194e-02
  7.7645313e-03
  2.2275388e-01
  1.6414048e-01
  2.3858656e-01
 -1.9174449e-01
 -1.5649632e-01
  4.3105405e-02
  2.8326014e-02
  1.6702755e-01
 -4.2396791e-02
  7.3486507e-02
  1.4739022e-01
 -8.2166183e-01
 -1.0334997e-01
  1.0515196e-01
  1.0825922e-01
  4.6233833e-04
 -2.6887152e-01
 -2.0867206e-01
 -2.2490120e+00
 -1.3667591e-01
 -1.0166180e-01
 -1.6145495e-01
  1.2160344e-01
 -4.5081463e-02
  7.5708985e-02
 -1.6665576e+00
 -1.9633455e-02
 -5.5103749e-03
 -1.6048893e-01
  2.5805935e-01
 -2.2795470e-01
 -6.9030263e-02
  4.7894275e-01
  6.2935792e-02
  1.5747698e-01
 -1.4605929e-01
 -1.6347936e-01
  3.9580348e-04
 -1.3653219e-01
  2.9125888e-02
 -2.1975487e-01
  4.2010978e-01
 -6.9520980e-02
  2.7255684e-02
  2.8212851e-01
  1.0545179e-02
 -2.2715460e-01
  1.1012916e-01
  1.7665409e-02
 -3.7432306e-02
 -1.0697927e-01
  6.4235851e-02
 -2.0402306e-01
  5.4911900e-02
  1.0878595e-01
 -6.2636659e-02
  3.3890828e-01
  2.5722152e-01
  6.7371219e-02
  6.7840010e-02
  6.7640871e-02
  2.0582199e-01
  4.1450888e-02
  5.3536594e-02
  1.8728727e-01
 -1.7842700e-01
 -9.8467782e-02
  2.9269777e-02
  1.8410334e-01
  2.6003137e-01
 -2.2189297e-01
 -4.8425447e-02
  2.1912703e-02
  9.0466551e-02
 -9.0711363e-02
 -3.9820530e-02
 -1.7930403e-01
  6.9824532e-02
 -1.7047977e-01
 -2.0085697e-01
 -2.4041927e-01
  3.3571683e-02
  5.1627922e-01
  8.5505493e-02
 -3.9434925e-01
 -1.1125024e-01
  1.3240521e-01
 -1.3488221e-01
  2.6939893e-02
 -1.2054574e-01
  2.9757816e-02
  1.3953918e-03
 -8.4712125e-02
  1.8414862e-02
  2.5661021e-01
  1.3197449e-02
 -1.4242686e-01
 -7.1512081e-02
  2.2675587e-01
  2.1153754e-01
  6.6212133e-02
 -1.6156085e-01
 -1.2726976e-01
 -1.2233388e-02
  4.0885147e-02
 -5.0782487e-02
  3.6330232e-01
  1.0422008e+00
 -1.3466692e+00
  1.6990782e-01
 -1.3489337e+00
  2.6327452e-01
  1.0815426e+00
 -1.4131293e-01
 -4.3054018e+00
  6.4204293e-01
  3.6652103e-01
  2.5890509e-02
 -2.2962663e+00
  2.7585647e-01
 -1.5037112e+00
  1.3005091e+00
  1.2735592e+00
 -7.0177442e-01
 -8.1074959e-01
 -1.5818101e+00
  5.3346646e-01
 -2.4657121e+00
  8.3986759e-01
  3.4414868e+00
  9.0886307e-01
  7.7438727e-02
 -8.4748536e-02
  4.5152507e+00
 -2.6362653e+00
  2.5479135e-01
 -4.3207164e+00
 -6.6692692e-01
  2.7079720e+00
 -1.3992586e+00
  1.5277381e+00
  1.7861959e+00
  4.7236066e+00
 -1.0710814e+00
  1.8884838e+00
  6.0469556e-01
  7.2759068e-01
  1.1129987e+00
 -1.9406043e+00
  9.9875629e-01
 -2.6611998e+00
 -5.7875622e-02
 -2.3518112e+00
  2.8831691e-01
  8.0469340e-02
  7.9089299e-02
 -5.2020341e-01
 -1.8783772e-02
 -2.0109902e-01
 -1.3631311e-01
  4.5168704e-01
  4.1214743e-01
 -1.5240116e-01
 -4.3185227e-02
 -1.8803754e-01
 -1.3871518e-01
  2.6778078e-02
 -1.4094903e-02
  5.4334451e-02
 -5.3567113e-03
 -3.3418410e-02
  2.1009947e-01
  2.0936744e-01
 -5.3782064e-02
  8.6785533e-02
  1.2703033e-01
 -1.0495375e-01
  1.1645390e-01
 -7.3752075e-02
  8.0894060e-02
 -5.0485092e-01
  4.6803441e-02
  4.8579078e-02
  3.5127032e-01
  3.4316161e-01
  1.7961261e-01
 -5.1128432e-02
  2.1446401e-01
  4.6753642e-01
 -1.9270392e-01
 -1.0893461e-02
 -2.0753080e-01
  3.0923698e-02
 -1.1728567e-01
  1.8983064e-02
 -1.0711032e-01
  4.8258476e-02
 -1.9774087e-02
  1.8868558e-03
  3.9922369e-01
  3.3578746e-02
  1.5382071e-01
 -1.0703482e-01
  9.5125586e-02
 -8.2966655e-02
 -3.7987668e-02
  1.3092762e-01
 -8.3653510e-02
 -1.8983640e-02
 -1.6958071e-01
 -7.4217445e-01
  2.8417000e-01
 -9.5015794e-02
 -3.3523422e-01
 -4.2551050e-01
 -6.0826194e-01
  4.6230707e-02
  2.5604489e-01
 -2.8959740e-02
  1.1460198e-01
  1.5421847e-01
  5.8462776e-02
 -6.9533676e-02
 -2.2621709e-01
 -6.9037110e-02
 -2.6506484e-02
  3.5391021e-01
  2.0400357e-02
 -2.0012481e-02
  2.9028490e-02
 -6.5503925e-02
  6.4553671e-02
 -1.0706371e-02
 -1.6141306e+00
  1.1813396e-01
 -7.8333095e-03
  3.0100310e-01
 -1.6675663e-01
  1.2716302e-01
  1.5769300e-01
  1.3763915e-01
 -1.1220700e-01
 -3.2962584e-03
  1.7715080e-01
  1.3339099e-01
 -1.2746181e-01
  4.1723174e-01
  4.3932553e-03
  1.8816748e-01
  1.7475659e-01
  1.0419019e-01
  8.3773583e-02
  1.4607058e-01
 -5.0325822e-02
  6.4354934e-02
  3.9993390e-02
 -1.5089350e-02
 -3.3972573e-01
 -4.5767871e-01
 -2.9331103e-01
 -1.0215041e-01
  1.8728440e-01
 -1.3503873e-01
 -6.4613647e-03
 -2.6822608e-02
  1.4888208e-01
  3.2870118e-02
  3.9613809e-02
  1.7408600e-02
  2.1209514e+00
 -2.5606823e-01
  6.5835811e-02
  2.2672787e-03
  1.9066274e-02
 -3.4371741e-02
  2.2808272e-02
  3.7860464e-02
 -4.8549201e-02
 -5.1840174e-01
 -2.8272439e-04
  8.7914497e-02
 -1.9699813e-01
 -6.3294590e-02
 -2.7959503e-02
  4.5735964e-01
  1.7643304e-01
  3.8246635e-01
  1.8939017e-01
 -1.0496321e-01
 -3.1994898e-02
 -6.8361033e-03
  8.9562929e-01
 -2.0618123e-01
 -3.4319964e-01
 -3.8603300e-01
  2.6102994e-02
  3.1833604e-02
 -3.8732868e-01
  6.9256343e-02
  1.0876253e-01
  5.3190851e-01
 -8.3469056e-02
 -3.1756237e-03
  7.3548019e-02
  1.4206816e-01
  5.9894681e-01
 -6.7319974e-02
 -2.1392140e-01
  3.7349913e-02
 -6.6301562e-02
 -3.2596749e-01
 -2.5713217e-01
  8.8152163e-02
 -5.5956894e-01
  1.7268196e-01
  3.7636703e-01
 -5.6521285e-02
  1.2517206e-01
  1.1828119e-01
  9.0399578e-02
 -1.4382713e-02
  1.3892071e-01
  9.3613558e-02
 -3.2547140e-01
 -1.4474222e-01
  1.2018859e-01
  4.7537884e-01
  4.2772040e-02
 -1.5272282e-01
  6.8823469e-01
  6.9642454e-02
  5.5677809e-02
 -2.2718387e-02
  1.4457974e-01
 -2.8392079e-01
  4.2501070e-02
 -1.4431188e-01
  1.7640751e-02
  3.2507339e-01
  2.0205717e-01
 -2.4299778e-02
  2.4712245e-01
  1.3591783e-01
 -1.1239804e+00
  1.4160573e-02
  1.6782832e-01
  1.6984583e-01
 -7.7479556e-02
 -1.8487173e-01
 -4.6019934e-02
  1.3981010e-01
  1.3426535e-01
 -4.1872251e-01
  1.4679363e-01
  6.4799361e-02
 -5.4065809e-03
 -6.7113616e-02
 -6.7001414e-01
 -3.5503083e-01
 -2.2094817e-01
  2.3177467e-01
  2.9708933e-02
  6.0466498e-02
  1.1860706e-01
 -2.6077703e-03
 -3.0101407e-01
  1.9903229e-01
  2.6080203e-01
  4.5741577e-02
 -1.9535315e-01
  7.8135401e-02
  4.7327064e-02
 -1.4847393e-01
  4.8607048e-01
 -1.6261365e-01
  1.2077696e-01
  3.7087518e-01
  2.3780292e-01
  2.2942951e+00
  3.2105371e-01
  2.1534920e-02
  1.2385079e-01
 -7.2432965e-02
 -1.5118127e-01
  2.9175067e-01
  5.2483982e-01
 -1.2065839e-01
 -1.4311062e-01
 -1.3459751e-01
  4.1970935e-01
  5.9850328e-02
  1.0380237e-01
 -4.0869404e-02
  1.7174008e-01
  7.6104850e-02
  4.0694118e-02
 -9.4149902e-02
  6.5659665e-02
  7.7480748e-02
 -1.3373519e-01
 -3.5073925e-02
  7.5458825e-02
 -3.7497964e-02
 -4.0554121e-02
 -1.6228561e-01
 -3.6025679e-01
  1.4081183e-01
 -1.6588986e-02
  3.6349568e-01
 -6.5697826e-02
 -6.4006291e-02
 -2.5173151e-01
 -1.2414074e-01
 -9.6975654e-02
  6.9406152e-02
 -8.7239139e-02
 -1.0904922e-02
 -1.4660333e-01
 -1.0741904e-01
 -8.3711460e-02
 -2.1178032e-01
 -1.3451003e-01
  3.1215882e-01
 -1.3115188e-01
 -7.2160877e-02
 -4.2795993e-02
  1.0888481e-01
  9.1005728e-02
 -4.2972770e-01
  6.7078337e-02
  2.4275176e-01
  6.1294809e-03
  1.9651678e-01
  3.2458234e-01
 -1.5131640e-01
  9.4827101e-02
  2.1103859e-02
  6.6744760e-02
 -5.2748501e-02
 -2.5815979e-02
  4.1347302e-02
 -2.4938099e+00
 -6.4664625e-02
 -4.8097510e-02
  8.3025801e-01
 -4.1826107e-03
 -3.7551343e-01
  2.9047564e-01
 -6.2682584e-02
  3.5963535e-01
 -2.5462517e-01
 -2.5120747e-01
  2.0429851e-01
 -1.6447663e-01
  2.2681612e-01
  4.1879315e-02
  2.5765571e-01
 -5.5420093e-02
 -8.5548475e-02
 -1.5049428e-02
 -7.4469134e-02
 -2.5298151e-01
  1.9988808e-01
 -1.9337893e-01
 -1.4851165e-01
  5.6800848e-01
  3.0092556e-02
 -1.4181231e-01
 -2.2267269e-01
 -1.4345668e-01
  3.2971796e-02
  2.0433016e-01
 -3.5177234e-01
  1.7987275e-01
  1.4695892e-02
  8.6839777e-01
 -1.7402777e-01
  4.0171325e-01
 -8.9865252e-02
 -9.0283409e-02
  2.0634954e-01
 -4.5214149e-01
 -1.3818200e-01
  1.0493191e-01
 -8.7174875e-01
 -8.9168027e-03
 -2.3017961e-01
 -2.2121321e-01
  3.5736421e-01
 -6.4659494e-01
 -3.6980528e-03
 -1.9655775e-02
 -1.9047131e-01
  4.4771750e-03
  6.9688970e-01
 -2.9193106e-01
 -1.1505432e-01
 -2.4999793e-01
 -1.1613024e-02
 -9.8893136e-02
  5.1514852e-01
  2.2015524e-01
  2.3450617e-01
  1.6008872e-01
  5.2048624e-01
 -5.7760827e-02
  1.1364710e-01
  1.7069027e-01
  2.6214879e-02
  1.4185678e-02
 -8.3278298e-02
  1.7517693e-02
  1.3800010e-01
  1.0758562e-01
 -1.5803923e-01
  2.1375386e-01
  3.9218271e-01
 -2.2959866e-01
 -3.9899582e-01
  9.6406013e-02
  2.2485135e-01
  2.0549309e-02
 -7.1226306e-02
 -2.1125774e-01
 -1.7215952e-02
  4.8433598e-02
 -2.6720014e-01
  2.0242271e-01
  1.9033250e-01
 -3.5387185e-01
 -9.4703600e-02
  5.2084404e-01
 -1.0097584e-01
 -1.1243559e-01
 -4.8361102e-01
  6.8947844e-02
 -3.4636825e-02
 -8.8579470e-01
 -6.6856140e-01
 -2.6103997e-01
  3.9385762e-03
  2.6336631e-01
 -2.1568398e-01
  3.7179306e-01
  2.7339475e-02
  2.8851205e-01
  4.1476643e-01
 -7.4911481e-01
  2.6677039e-01
  5.3860549e-02
  9.3198396e-02
 -3.8809046e-01
  1.8302505e-01
  3.6694977e-02
 -1.9094247e-01
 -1.8528776e-01
 -2.9041458e-02
  2.8408548e-01
 -4.7650233e-02
 -1.2109597e-01
  3.7603652e-01
 -3.3353013e-01
 -8.6609021e-02
  6.7711711e-02
  4.2971067e-02
 -2.7751347e-01
  1.3456485e-01
 -1.8981659e-01
  1.8143496e-01
  2.5133735e-02
 -4.8632812e-02
  5.1215280e-02
  4.6355169e-02
  1.5000512e-02
  2.7544117e-01
 -1.3492131e-01
  8.3405949e-02
  1.7371219e-01
 -2.6803538e-01
  2.6931727e-01
 -5.4302871e-01
  5.0972220e-02
 -3.7503861e-02
 -1.1061152e-01
 -1.3097046e-01
  5.0748569e-01
  1.7431019e-01
 -2.4591211e-02
  7.4229188e-02
  5.1005587e-02
 -9.1583446e-02
  1.2975261e+00
 -2.0650159e-01
  4.2694768e-01
 -3.5088509e-01
  1.9753470e-01
  9.7822882e-02
  3.5888846e-03
 -1.4053264e-01
  1.0834216e-02
  1.2789749e-01
 -2.2244830e-01
 -1.0121866e-01
 -6.6789821e-02
 -9.2109717e-02
  2.0512272e-02
  8.9231856e-02
 -1.4283660e-01
  4.0881827e-02
  1.7171980e-01
  4.7704052e-02
  2.3431167e-01
  9.4761243e-03
  1.0488839e-01
 -3.6549771e-01
 -2.5941212e-02
 -5.7917647e-03
  8.0437526e-02
 -5.0338560e-01
 -1.1926174e-01
  5.7316974e-02
 -1.5784456e-01
  1.7624414e-01
  1.8766701e-01
 -4.3063670e-02
  9.6104659e-02
  3.8613848e-02
  1.2872522e-01
  9.8763257e-03
  1.8940881e-01
  3.2126331e-01
 -1.5502326e-01
  3.1206948e-01
  8.0863081e-02
 -2.9904914e-01
 -9.5626907e-03
  1.3185225e-01
  3.7622310e-02
  2.1781746e-02
  3.9189193e-02
  9.6343637e-02
 -1.7424785e-01
 -2.7321273e-01
 -6.9341660e-03
 -2.7927887e-01
 -9.6916181e-01
 -1.3976078e+00
 -1.3035755e+00
  1.2221478e+00
  4.6429062e+00
  5.2096212e-01
 -4.7937804e-01
 -2.0555151e+00
 -5.5064851e-01
 -8.3857290e-02
  1.2208819e-01
  1.5220503e+00
 -1.2165325e+00
 -1.2400537e+00
  6.7708373e-01
 -1.3458649e+00
 -1.3980387e+00
 -1.5248829e+00
 -4.1225037e-01
 -7.8943801e-01
 -3.6925468e+00
  8.6475283e-02
  9.3935460e-02
 -3.4621722e-01
 -4.6067703e-01
 -2.4888251e+00
 -2.4820104e+00
  2.3432128e-02
  2.4139290e+00
 -2.9257088e+00
 -5.6058588e+00
 -5.2607208e-01
 -6.1288565e-01
 -1.1552379e+00
 -1.3976490e+00
 -1.4550896e+00
  3.1549673e+00
 -1.0725399e+00
 -2.2984498e+00
 -2.8764957e-01
 -3.5198563e-01
  4.7402316e-01
 -2.0940344e+00
  3.2727608e-01
  6.1111987e-01
  5.4344233e-02
  8.3080924e-01
 -3.7239277e-01
 -5.2611697e-01
 -1.1148320e-02
 -2.2316504e-01
 -3.6304042e+00
 -3.8767824e-01
  1.0423062e-01
  2.2881807e-01
  1.0476359e+00
  3.8760212e-01
  9.4763510e-02
 -5.5295181e-01
  4.7868794e-01
 -5.0139493e-01
 -1.6979282e-01
  2.9502663e-01
  3.0269268e-01
 -5.7791369e-03
 -3.6925244e-01
  2.2811668e-01
 -3.9320808e-02
  3.0699134e-01
  3.1165451e-01
 -4.7651190e-02
 -8.3882652e-02
 -9.1009431e-02
 -6.3950056e-01
 -1.6226594e-01
 -9.2352355e-01
 -3.5959959e-01
  2.7500093e-01
 -1.4144853e-01
  8.2556278e-02
 -1.4954960e-01
  5.0965852e-01
 -1.3937928e-01
  8.2689911e-02
  1.0633851e+00
  4.1487423e-01
  3.7340608e-01
  9.5178664e-01
  8.1072569e-01
 -5.2739769e-01
  1.0934358e-01
  5.6752825e-01
  5.9563424e-02
  2.8537315e-01
 -1.1889306e-01
  3.2921202e-02
 -8.7167263e-01
 -2.8319159e-01
  2.4679465e-02
  3.7257680e-01
 -3.9674774e-01
 -6.3967514e-01
  2.2530812e-01
 -1.7851783e-01
  7.8264005e-02
 -6.0334008e-02
 -1.0510223e-01
 -6.0957141e-02
 -2.7564965e-02
 -2.4090592e-02
 -1.6911262e-01
 -5.1143539e-01
 -5.3496465e-02
 -1.5448822e-01
  1.4188278e-01
 -5.4440930e-02
  1.6337782e-02
 -1.3798051e-02
 -4.9162966e-01
 -8.5136962e-01
 -1.9713422e-02
 -1.0451789e-02
 -1.2205946e-02
 -3.6687174e-01
  1.3063583e-01
 -2.2616126e-01
  4.8890468e-02
 -1.9971963e-03
  5.5674148e-01
  2.4061313e-01
 -9.1020077e-02
 -2.3754507e-01
  3.4205300e-01
  1.1417191e-01
  1.3274211e-02
  1.6468765e-01
  9.5764615e-02
  3.0327829e-02
 -1.3139588e-01
  7.0414513e-02
  1.6130438e-01
 -6.2635146e-02
  6.2526271e-02
 -2.5671878e-01
 -2.3371610e-01
 -2.9936725e-02
 -2.2534154e-02
  1.0395129e-01
  7.0581771e-02
 -1.1017448e-01
  9.4706669e-02
  2.9895112e-02
 -4.1579824e-02
 -2.0944832e-02
 -6.4458378e-02
 -1.2344733e-01
 -4.8537988e-02
 -4.9638799e-01
  5.9827995e-02
  1.1053662e-02
 -2.5830296e-01
  2.3798589e-02
  5.1101629e-02
 -2.4582960e-01
  9.4815552e-02
 -1.5629476e-01
  5.2933984e-02
  8.1443228e-02
 -2.9884968e-02
  8.5798055e-02
  8.8857710e-01
 -1.3531741e-01
 -1.0886264e-01
 -1.3824055e-01
 -1.1578919e-02
 -1.0855888e-01
 -3.5424270e-02
 -4.1628176e-01
  1.0856342e-01
  1.5268424e-01
 -3.0722076e-01
  2.4421152e-02
  3.7906311e-02
  1.7065559e-01
  8.1543047e-03
  4.9747452e-03
  5.6050527e-01
  7.1272388e-02
 -1.4068370e-01
 -1.8498363e-02
 -6.9019198e-01
  3.2289746e-01
  2.3879223e-01
  2.2290908e-02
  1.1064271e-01
 -1.2751573e-01
 -4.3725851e-01
  1.0574424e-01
 -7.6154843e-02
 -2.9228961e-01
  3.9993729e-03
  2.7849223e-02
  2.1777624e-02
  2.0724991e-01
 -5.2113670e-01
  1.4290702e-01
 -1.0269471e-03
  8.3316565e-02
  1.8884215e-01
 -2.9395157e-01
 -2.3120563e-01
  9.0543054e-02
 -7.4806124e-02
  3.6900017e-01
  5.6299195e-02
  1.2094442e-01
  1.0687076e+00
 -9.0961486e-02
  2.2070286e-01
 -3.7486896e-02
 -3.1238365e-01
  4.8972967e-01
 -8.2166541e-01
 -3.7031066e-01
 -2.8739446e-01
  1.6724598e-01
 -9.8811306e-02
 -3.1586149e-01
 -1.6278981e-01
 -3.1822770e+00
 -8.6748488e-02
  2.1193980e-01
 -5.9999448e-01
 -2.2556137e-02
  9.4306313e-02
  5.3506488e-01
 -9.5420897e-01
  1.0253755e-01
  1.4037940e-01
 -2.8420109e-01
 -9.1269308e-01
 -6.1480832e-01
 -4.0214846e-01
  1.4782210e-01
  6.5007471e-02
  1.9606387e-02
 -1.4772552e-01
 -3.1631443e-01
 -8.5464156e-01
  9.4305061e-02
  1.6511551e-01
 -1.1988410e+00
 -4.2708337e-01
  9.1853835e-02
 -2.9039374e-01
 -7.6667145e-02
  3.5162419e-02
  6.0091857e-02
  3.5960592e-02
  4.9363098e-01
  2.8564904e-02
  9.4757743e-02
  7.1852915e-02
 -4.4660971e-02
 -1.0135005e-01
  7.6905870e-01
  6.0904916e-02
 -3.8326107e-02
  2.2590499e-01
  6.7193305e-01
 -8.1263745e-01
 -5.5735320e-01
  1.4507048e+00
  3.5038471e-02
 -8.8465353e-03
  2.4281079e-01
  1.1114721e-01
  1.1438862e-01
  5.7382826e-02
 -1.3656665e-01
 -3.3937395e-01
  2.3157288e-01
 -4.3870229e-01
  1.1696932e-01
 -1.0250030e-01
  3.5529125e-02
 -1.6808698e-01
  1.5626113e+00
  1.3007086e-02
  4.0880325e-01
  6.2373653e-03
 -1.8776332e-01
 -4.4302396e-02
  4.2452350e-02
 -4.6702150e-01
 -1.3486983e-01
  8.6168259e-02
  4.8173591e-03
 -2.0413494e-01
 -6.4951676e-01
  4.6372020e-01
 -3.8837036e-01
 -1.1060823e-01
 -1.3131285e-01
  1.5203741e-01
 -1.3141139e-01
 -3.3272177e-02
 -6.5453418e-02
 -3.0114977e+00
 -8.9736376e-03
  2.3767434e-02
  1.4298508e+00
  3.6121249e-01
 -3.3621144e-02
  9.8548360e-02
 -2.5289190e-01
  2.5286220e-02
 -1.6136460e-02
  1.0926276e-01
  1.0574946e-02
  1.9448239e-01
  1.7276160e-01
  9.9581853e-02
  1.8775834e-01
  7.4626990e-02
 -4.0745692e+00
  3.0637933e-02
 -6.6668130e-02
 -3.5649169e-02
 -1.6261020e-01
 -8.8770822e-02
 -1.9527343e-01
  4.6164411e-01
  8.9607483e-01
 -8.3964050e-02
 -4.5313116e-02
 -2.1246287e-01
 -1.4631718e-01
 -2.1047642e-02
  3.5184789e-01
 -2.2705486e-03
  7.8787349e-02
  1.8859081e-01
  1.1150604e-01
  2.2468159e-01
  3.8745487e-01
 -2.5512220e-02
 -6.3419268e-02
 -4.7273856e-02
  1.4156285e-01
 -9.2756003e-02
 -1.7700711e-01
  4.0587850e-02
 -8.0613643e-03
  2.5821546e-01
 -5.6189664e-02
 -7.0976543e-01
 -2.5230404e-03
  4.6529885e-02
 -4.6122018e-02
  8.8727094e-02
  5.1549580e-02
 -1.9468218e-03
 -3.9892107e-01
 -4.8972964e-02
  2.6541200e-01
 -6.1131679e-02
  2.7307615e-01
 -1.0818842e-01
  8.8446885e-02
  1.6013859e-01
  2.0844206e-01
 -4.3418422e-01
 -1.1515559e-01
  4.2324211e-02
  1.4148644e-01
  2.5534768e-02
  9.2445062e-03
 -8.9907360e-01
  5.0656751e-02
  9.6529640e-02
  9.4114974e-02
 -3.3618908e-02
 -9.5902765e-01
  4.7564766e-01
  2.6973414e-01
 -4.8542514e-01
 -4.8494563e-01
  1.8004279e-01
 -5.6884483e-02
 -8.8677183e-02
  5.0787866e-01
 -3.3124227e-02
  2.9909596e-02
  2.2935563e-01
 -5.2922636e-02
 -1.8258098e-01
 -6.0276493e-02
  3.1390372e-01
 -6.2442537e-02
 -4.7648899e-02
 -2.5711524e-01
 -2.3432779e-01
 -2.9348499e-01
 -8.4035391e-01
 -6.4243130e-02
 -8.7800354e-01
  2.2006261e-01
 -2.7751744e-01
 -1.4563195e-02
 -1.7913757e-01
 -2.6204012e-02
 -2.1098106e-01
 -6.2452167e-01
  7.9025127e-02
  7.8190677e-02
  1.6456436e-01
 -1.6549790e-01
  6.4581558e-02
 -8.9227177e-02
 -6.3403867e-02
  8.8462070e-02
  1.3571197e-01
 -4.2354614e-01
 -1.4739755e-01
  4.2927164e-01
 -1.5027766e-02
 -1.2508079e-01
 -2.8527014e-02
 -3.6945522e-02
  1.3954730e-01
 -1.1260283e-01
  3.7500182e-01
 -8.0862504e-01
  9.1120064e-01
  4.8761770e-01
  7.6821442e-03
  3.9172783e-01
  2.7434216e+00
 -1.1641573e+00
  2.2777402e-01
 -1.6361852e+00
 -7.9988003e-01
 -2.9896536e+00
 -4.2684026e+00
  6.0359758e-01
  3.1280094e-01
 -9.1782667e-02
 -1.2825758e+00
  2.9537299e+00
  6.3896626e-01
 -3.4655237e-01
 -7.3143989e-01
 -1.0887488e+00
 -1.2772176e-01
 -3.6469650e-01
 -2.3267298e+00
  1.9533892e+00
 -9.4833034e-01
  1.4161438e+00
  1.1845927e-01
 -6.9063812e-01
 -2.1009378e-01
 -3.9149231e-01
 -1.1078352e+00
 -1.2259395e+00
  4.4054542e+00
  2.0610476e+00
 -6.0729420e-01
  5.5158317e-01
 -1.9238948e+00
 -2.3182601e-01
 -1.1711491e+00
  5.8386129e-01
  1.2166545e+00
 -2.5337710e+00
  9.0265071e-01
 -9.0200327e-02
  3.1109359e+00
 -2.8835065e+00
 -7.2041017e-01
  2.8868459e-02
 -3.7561007e-02
 -8.9732707e-01
  1.5440911e+00
  9.1631669e-01
 -5.9162205e-01
 -8.4159605e-02
 -3.3455685e-02
  5.9225451e-02
 -8.7279961e-02
  1.8288653e-01
 -6.6572800e-02
 -6.7471370e-02
 -9.8493345e-02
 -7.8860410e-03
  7.6081619e-02
  2.5566766e-01
 -3.7159446e-01
  1.1434919e-01
 -2.4749170e-01
 -6.6047251e-02
 -1.8603349e-01
 -3.6691916e-01
  3.9783467e-02
  3.5353121e-01
  3.4551215e-01
 -9.4294429e-02
  9.1515556e-02
 -3.2546368e-01
  1.5725078e-02
  4.3233722e-01
  4.5360353e-02
  3.2856566e-01
  3.2890938e-02
  1.6313937e-02
 -5.9816718e-02
 -9.8687410e-03
 -5.2958556e-02
 -4.0141487e-01
  2.2970667e-01
 -2.4462348e-02
 -2.4000365e-01
 -1.7206402e-01
 -2.6833943e-01
  4.5950260e-02
 -3.8953659e-01
 -1.3344853e-01
 -4.0554547e-01
  2.4463931e-01
  2.0251074e-01
  2.1884199e-02
  1.0625591e-01
 -4.0387474e-02
 -2.3968621e-01
  2.1883411e-02
  4.7535279e-01
  4.0304363e-01
 -8.2111701e-02
  1.4901912e-01
  1.9015170e+00
 -4.4614065e-01
 -2.2156611e-02
  1.5036976e-01
 -1.5559076e-01
  1.4490387e-01
 -1.4368339e-01
 -7.2900534e-02
  1.3980450e-01
 -2.3484234e-02
 -1.6048604e-01
 -1.0948390e-01
 -2.3533569e-01
 -2.7846854e-02
 -2.4649888e-01
 -1.9498530e-01
  5.6489533e-01
  9.8811507e-02
 -1.9126192e-02
 -1.6972771e-01
  2.3094091e-01
 -3.0057460e-02
  8.9390486e-02
  1.0552257e-02
  2.4338296e-01
  1.1728232e-01
  1.0738337e-01
  1.9524084e-01
 -9.7322360e-02
  7.0533007e-03
  2.5005987e-02
  1.5201713e-01
 -1.8636437e-01
  3.3023834e-02
  7.5941816e-02
 -1.4198582e-01
  1.1039150e-01
  2.7563033e-01
  8.1837848e-02
  1.3733140e-01
 -1.3920885e-01
 -1.2554589e-01
 -3.3679044e-01
  1.6903475e-01
  3.1502225e-02
 -1.9406797e-01
 -5.6860548e-02
  1.3635993e-01
 -2.4136567e-01
 -2.5017023e-01
 -3.3515811e-02
  3.3107403e-01
  5.9033655e-02
 -3.8038367e-01
 -6.9108337e-01
  4.1791728e-01
  6.3212834e-02
  3.5536528e-01
  4.5397457e-02
  1.2298241e+00
 -5.8923519e-01
 -4.2546171e-01
 -5.6939715e-01
  2.0231047e+00
  1.4211996e+00
  1.1489638e+00
 -1.0627871e-01
 -2.0471560e-03
 -9.0399422e-03
 -4.1319765e-02
 -1.2538056e-01
 -2.7905917e+00
  1.3257487e+00
  1.2696044e-01
 -2.5844434e-01
 -5.0820671e-02
 -2.0188737e-01
 -1.9745465e-01
  2.2322903e+00
  4.3162137e-01
 -7.0098799e-01
  1.3230631e+00
 -3.9329798e+00
 -1.9912202e+00
 -4.3881935e-01
 -3.5512816e-02
  6.3198936e-01
 -3.5993121e+00
  4.1060776e-01
 -7.0482707e-01
  6.2499785e-01
  2.8008795e-01
  1.6930891e+00
  6.7545420e-01
 -1.7473929e-01
  9.9849325e-01
 -2.4792464e+00
  9.3121809e-01
  1.8155361e+00
  2.0046082e-01
 -3.7841730e-02
  4.7225797e-01
  1.8081062e-01
 -3.1184793e-01
  2.0228529e-02
 -1.3651382e-03
  1.7245732e-01
 -8.7060839e-02
 -2.1753800e-01
  5.0794125e-01
  3.6663603e-02
 -1.3529378e-01
  4.2110825e-01
 -1.5939633e+00
  4.2416781e-01
 -2.4262361e-01
 -7.2863728e-01
  4.9556559e-01
  1.2526487e+00
 -1.5563980e+00
 -2.7062471e+00
  1.0229743e+00
  4.9641758e-01
 -1.0583978e+00
  7.2771728e-01
  8.3933467e-01
 -3.0399282e+00
  1.6934377e+00
 -2.7194846e+00
  4.6270609e-02
  1.5555373e+00
 -1.2712446e-01
 -6.8027681e-01
 -6.1944550e-01
 -3.3175403e-01
 -1.3861301e+00
 -1.8410188e-01
 -2.8194644e+00
  5.5200696e+00
  7.2760135e-02
 -6.1822808e-01
  3.7234933e+00
 -4.1718435e+00
 -1.7625861e+00
  4.8220852e-01
  9.2569816e-01
 -1.9830190e+00
  5.9909898e-01
 -1.5091404e+00
  1.1599897e-01
  1.7763728e+00
  2.2253120e+00
 -3.3567786e+00
  3.5315741e-02
  5.4347978e+00
  2.0937798e+00
 -3.2181555e-01
 -7.1774639e-02
  6.2187895e-02
  3.0339995e-01
  4.3477261e-01
  2.0741951e-01
  1.5236214e-01
  3.5028693e-01
 -3.4482130e-01
 -2.7571615e-02
  9.3478262e-02
  2.5379092e-01
  8.4197842e-02
 -7.7228785e-02
 -9.8269634e-02
 -1.4767708e-01
 -2.5519410e-02
 -1.6164704e-01
  7.1542658e-02
  5.4492574e-02
 -8.1347831e-02
  2.7972010e-01
 -2.4633251e-02
 -1.6077778e-01
 -4.3724090e-02
  2.2974749e-01
  2.9063681e-01
  6.5391570e-02
 -2.1166468e-01
  6.2354431e-03
  5.4046005e-01
  1.5751538e-01
  1.6230482e-01
 -1.2597449e-01
  2.9895911e-01
 -9.6264072e-03
  1.2057876e-01
 -2.2796367e-01
 -9.1579184e-02
  2.1982518e-01
  2.1610405e-01
  3.2809249e-01
  5.7934299e-03
 -1.4276518e-01
  1.3186982e-01
 -1.2637860e-01
  4.6679797e-03
 -9.4671085e-02
  5.0265300e-01
  2.9417822e-01
  1.8830989e-01
 -2.7601887e-02
  5.9726093e-02
  1.2713218e-01
 -1.3988085e-01
 -1.0080057e-01
  9.6509635e-02
  1.6545807e-01
 -2.0147087e-02
  8.2467362e-02
 -3.1369191e-01
 -3.1599931e-02
  5.2801800e-01
 -9.9957809e-02
 -7.4555650e-02
  4.9919982e-02
  1.0818645e-01
 -2.1874094e-01
  2.1787402e-01
 -2.0315419e-01
 -5.4739124e-01
 -5.8338928e-01
  3.6853831e-02
 -7.2535612e-02
  2.3594896e-01
  1.8808061e-01
  1.1324754e-01
 -2.0901056e-02
 -3.2343406e-02
 -7.9250030e-02
 -2.3835874e-01
 -3.6903903e-01
 -2.5634954e-02
 -7.1039595e-02
  1.1054756e-01
 -1.1787808e-01
 -6.1765778e-01
  1.0758965e-02
  1.9060792e-03
 -2.9250908e-01
 -4.3066069e-02
  6.3273892e-02
  8.8017337e-02
  9.7527102e-02
 -1.0166133e-01
 -4.1677439e-01
 -6.3837177e-01
 -1.1561663e-01
 -1.8746662e-01
  6.4444977e-01
 -9.2889234e-02
  2.0804271e-01
  5.3692651e-01
  2.7240677e-02
  5.1641434e-02
 -2.1361162e-01
 -8.6406954e-02
 -3.7688572e-02
 -1.8372620e-04
 -1.7656505e-02
 -3.8197562e-02
  1.2503413e-02
  1.0440887e-01
 -1.5070896e-01
  1.7395836e-01
 -1.4254600e-03
 -1.9564859e+00
 -9.6314125e-02
 -1.5443574e-01
  8.5947320e-02
  6.9307089e-02
  2.4608824e-01
  2.1233058e-01
 -1.8591018e-02
 -1.0950908e-02
  1.7690937e-01
 -2.2454134e-01
  4.0917602e-01
  4.1126966e-02
  1.8498679e-01
 -1.3084385e-01
  3.8446404e-02
 -1.5530180e-02
 -7.2692037e-02
 -1.9697547e-03
 -1.0567742e-01
  7.3002271e-02
  7.4036956e-02
  2.2341165e-01
 -1.5345676e-02
  3.4316191e-01
  1.0366524e-01
 -1.5158336e-01
 -4.9016726e-01
 -1.0034938e-01
  9.7152777e-02
 -4.5806360e-01
  2.9892436e-01
 -1.0684769e-01
  1.6736570e-01
 -2.1025808e-01
  1.2676418e-03
 -1.7162502e-02
 -1.2898298e-02
  2.1393415e-01
 -9.7279251e-04
  1.9991700e-01
 -7.7043608e-02
 -2.5151433e-02
  9.2938453e-01
 -1.3293555e-01
  1.7713138e-01
  1.3336012e-01
  3.6395844e-02
  7.1995907e-02
  9.8634763e-03
 -1.3238035e-02
 -9.1356978e-02
  5.8490295e-02
  7.5094365e-02
 -1.4429003e-01
 -7.0317131e-01
 -1.9058684e-01
 -2.7287606e-02
  2.0261280e-01
 -1.0335250e-01
  8.2893714e-02
 -1.6521701e-01
 -2.0241974e-02
 -3.6579750e-02
 -2.1190098e-01
 -1.9275369e-01
 -4.6287897e-01
 -5.4868776e-03
 -6.8686768e-02
  2.0528942e-02
  1.2289762e-01
  1.0759596e-01
 -4.0469607e-03
 -8.4177531e-02
 -2.3462033e-01
  6.2887222e-02
 -5.6255732e-02
 -1.5295316e-02
  7.6347560e-02
  1.8895251e-01
 -2.1205157e-01
  1.8463600e-01
 -4.1014725e-01
 -3.8056400e-02
  1.4167605e-01
  2.1145055e-01
  1.7531523e-02
 -7.3916189e-02
 -3.0977666e-01
  2.1868826e-01
  3.3914772e-01
  6.4682886e-02
  1.0819593e-01
  2.3769991e-01
 -4.6027198e-02
  1.6480346e-01
 -1.9911226e-02
  1.1978605e-01
  2.6828396e-01
  1.9469166e-01
  3.5952121e-01
 -1.3970841e-01
  2.6616627e-01
  5.4175504e-02
  2.7807695e-01
 -1.2400492e-01
  3.2994470e-01
  1.1101244e-01
 -4.7430956e-01
 -4.6921078e-02
  3.5500094e-02
 -1.7177956e-01
  5.1421690e-01
  1.3260855e-01
  2.7336225e-02
  2.3903233e-01
 -1.0824130e-01
  5.5541497e-01
  2.2568575e-01
 -4.4642079e-01
  5.4693855e-03
 -1.0266752e+00
 -5.2313097e-03
  1.2203538e-01
  6.2199622e-02
  1.8101392e-02
  4.2521688e-01
 -1.7531778e-01
 -5.9321575e-02
  4.1953597e-02
  1.4467913e-01
 -1.4283918e-01
 -5.5760546e-03
 -1.0166363e-01
  8.9533150e-02
  1.4483151e-01
  1.5484859e-01
 -8.2406461e-02
  3.3008367e-01
 -1.4198008e-01
 -2.0592695e-01
  1.2317669e-01
 -1.7824830e-01
  1.9036171e-01
  4.3202430e-02
 -8.4622271e-02
  2.9097835e-02
  2.7762595e-01
  3.3529532e-01
 -4.2277526e-02
  1.1839145e-01
 -3.1291169e-01
 -1.9486159e-01
 -4.2771995e-02
 -2.3197842e-01
 -2.0487517e-01
  1.6877338e-02
 -3.3218849e-01
  1.9781467e-01
 -9.4799951e-02
 -6.0228031e-02
  3.8263686e-02
 -3.9914152e-01
  2.8803732e-02
 -1.0199776e-01
  1.0144202e-01
  1.1997342e-01
  1.4377362e-01
 -2.5439841e-01
  5.4245478e-01
 -2.0386265e-01
  1.3302760e-01
 -1.3760305e-02
  1.4896184e-01
  2.6549602e-02
 -3.2690999e-01
  3.0628300e-01
 -1.2631500e-03
  6.0121313e-02
  9.5305189e-02
  1.2012502e-01
 -2.6441416e-01
 -4.6712020e-01
  1.1044879e-02
  1.9003280e-01
 -8.4179543e-02
  7.2710387e-02
 -4.2015757e-02
  3.0762762e-02
  1.4822756e-01
  2.7386987e-01
  7.8410484e-02
 -2.2183985e-01
 -2.0522761e-01
 -1.0223667e-01
  1.7484777e-02
 -1.8891876e+00
 -8.3750680e-02
  7.5925335e-02
 -2.4526450e-01
  8.4235787e-02
 -2.1672817e-01
  8.9669216e-01
 -2.0736198e-01
  4.9245395e-02
  2.0348354e-01
 -2.1668645e-02
  1.5779721e-02
  3.5144413e-01
  1.3671258e-01
 -7.7071100e-02
  1.0548715e-02
  2.3836508e-02
  2.1093899e-01
 -1.3874815e+00
  3.4845531e+00
 -8.3472866e-01
 -1.1995839e+00
 -1.6986762e-01
  1.2442908e+00
  1.8970333e+00
 -5.9256697e-01
 -2.6630232e-01
  6.9989514e-01
  4.7912568e-01
 -9.2953853e-02
 -1.3023672e-01
  1.3211509e-02
  2.4721298e-01
 -4.3473527e-02
  7.1535522e-01
  8.7400264e-01
 -1.5370813e-01
 -1.7125288e+00
 -6.5883875e-01
  8.6406671e-02
 -9.2454918e-02
  6.2209284e-03
 -4.9417496e-01
 -3.2373297e-01
 -5.2417345e-02
  5.4023787e-04
  2.1273193e+00
 -9.9211950e-03
  4.4439673e-01
 -1.9787726e-01
 -1.1081381e-01
  1.4592472e-02
  3.0964401e-01
 -1.4522761e+00
 -3.6122243e+00
  3.3069804e-01
 -2.0305290e+00
 -2.0523645e-02
  2.1304283e-02
  1.5272467e-01
 -1.0752322e-01
 -1.0008441e+00
 -2.9757204e+00
 -1.0085044e-01
  1.4678790e-01
  8.1673563e-02
  7.7462681e-02
  1.7301902e-01
 -3.9701927e-03
  1.6624764e-02
  3.5883600e-01
 -1.5204349e-01
 -1.2441351e-01
  8.8637716e-01
  2.6273933e-01
 -9.8355168e-01
 -1.5610954e+00
  6.9653201e-01
 -2.7817283e+00
  7.8181618e-01
 -4.4210470e-01
 -9.3918169e-01
 -6.9732565e-01
 -1.2316450e+00
  7.1316576e-01
 -1.0946072e+00
  4.1334853e-01
  1.1711949e+00
  2.3170295e+00
  2.1882875e+00
 -1.2376419e+00
 -7.8431004e-01
 -6.4167976e-01
  5.8925424e-02
 -4.1964254e-01
  1.9649571e-01
 -3.0867061e-01
 -5.0393057e-01
 -4.0368477e-01
  2.6947790e-01
  1.0544856e+00
  2.1324415e+00
  3.3137031e-02
  5.0432986e-01
 -9.9596167e-01
  4.4474804e-01
  1.6179658e+00
 -2.0578020e+00
 -6.9618440e-01
 -8.7228902e-02
  4.6291294e+00
  5.6242234e-01
  3.4959137e-01
  8.7060608e-02
 -8.0211043e-02
 -2.0028248e+00
 -5.1890212e-01
  1.4973059e-01
  5.3060639e-01
 -6.4347178e-01
  1.3658750e-01
  5.2657777e-01
 -1.5165891e-01
 -4.3917951e-01
 -1.2553878e-01
  7.0327856e-02
 -2.0063138e+00
 -1.9733281e+00
  1.0310884e+00
 -1.3912390e+00
  1.6253970e+00
  3.9821452e-01
  3.4246271e+00
 -1.3127502e+00
  1.2005001e+00
  3.7831018e+00
  1.4517500e-01
  2.5733857e+00
 -2.7779663e-01
 -3.8472615e-02
  1.1679798e+00
  5.0492221e-01
  7.8525886e-02
  3.7441246e-02
  1.0492029e-01
  2.9982724e+00
 -1.9167039e+00
  4.9582171e-01
  2.5396630e-01
 -1.4023799e+00
 -1.8849934e+00
 -1.5594683e+00
  2.7382550e+00
  6.0085231e-01
 -3.3066398e-01
 -1.7800031e+00
 -3.3309286e+00
 -2.3059581e-01
  6.2462483e-03
 -2.2205596e+00
  1.4642272e+00
 -1.7933746e-01
 -1.0398976e+00
 -4.5995924e-01
 -2.2399803e-01
  3.7045125e-02
 -1.6659330e-01
 -1.4235681e-01
 -3.4651675e+00
 -2.1533298e-01
  8.0667526e-01
 -2.0402651e-01
  3.3145331e-02
  1.1127295e-01
 -3.9210984e-01
 -2.5372702e-01
  1.1770432e-01
  2.6478808e+00
  1.0391173e+00
 -3.1194113e-02
 -2.6128962e+00
  8.0261391e-01
 -6.7293435e-01
 -1.5021189e+00
  7.8024697e-01
 -1.4853637e+00
  7.5084728e-01
 -1.2847967e-01
  1.4040945e+00
  2.2040129e+00
 -5.6806338e-01
  3.9964273e+00
 -1.7022853e-01
  1.1580078e-02
  3.9863117e+00
 -6.6084480e-01
  3.4892185e+00
 -2.1784487e+00
  8.0813587e-01
  6.7736846e-01
  4.7056961e+00
 -1.8299409e+00
  1.4576198e+00
 -4.4936582e-02
 -1.3064526e-01
 -4.8749847e+00
  2.5932510e+00
  4.0072462e-01
 -8.6098170e-01
 -1.5108481e-01
  2.2478979e+00
  4.8611486e-01
  3.1618435e+00
  1.2304759e+00
 -6.9151908e-01
 -2.5557621e+00
 -7.5328678e-01
 -8.6794239e-01
 -1.0414630e+00
  1.3975410e+00
  8.3920872e-04
 -2.6157811e-01
 -2.2779496e+00
 -5.2002754e-02
  8.4308052e-01
 -1.0815562e-01
 -3.3876446e-01
  9.4561443e-02
  1.7169945e-01
  3.2426499e-02
  1.3877167e-01
  1.3497560e+00
  8.4419262e-01
 -3.9029339e-01
 -8.2985342e-01
  2.4889591e+00
  2.1648922e+00
 -2.9780512e+00
  4.6014106e-01
 -6.7945033e-01
  1.1787829e+00
  1.3670992e+00
 -4.7286946e-01
 -3.7544759e-03
 -2.0381214e-01
  1.9979349e+00
 -7.6861137e-01
 -7.0830357e-01
  3.8095775e+00
  1.0184866e+00
  8.1917804e-01
 -3.4189871e-01
  1.3530176e+00
 -5.9999661e+00
 -2.1424842e+00
  1.8500063e+00
 -1.3341466e-01
 -1.7864760e+00
  8.5877919e-01
  6.6318383e+00
 -1.3997153e+00
  6.6270047e-01
 -1.0902193e-01
 -6.3546371e-01
  3.5058951e-01
 -2.0943639e+00
  3.2564005e-01
 -5.7137412e-01
  1.8535000e+00
 -1.2920471e-01
  2.6422134e-01
  1.4915437e+00
 -3.9499428e+00
 -2.0968955e-02
 -7.0579633e-02
 -1.8926100e-01
  1.5714437e-01
 -4.6141118e-01
 -1.0058838e+00
  1.9106735e-01
  1.9042523e+00
  1.7812952e+00
 -1.0563850e+00
  1.6311830e-01
  4.4532963e-03
 -1.9796574e+00
  4.4750464e-01
  7.6989454e-01
  5.9869939e-01
  1.4888456e-02
 -1.2554064e+00
  1.3613565e-01
  1.7763917e-01
 -1.6579784e-01
  5.2160677e-02
 -4.1765341e-01
  7.7303596e-02
 -1.2181317e-01
 -4.1324113e-02
 -1.0955620e-01
 -2.3831530e-01
 -1.2697536e-02
  6.3154304e-01
  1.4727807e-01
  1.8331769e-01
  4.5422468e-02
  2.3470965e-01
  1.9395549e-02
  9.3769319e-02
 -4.9417596e-02
  1.0536891e+00
  5.6515835e-02
 -1.5644485e-02
  2.1287100e-01
  7.8432396e-02
 -1.1632949e-02
  2.2824444e-02
 -2.5685170e-01
 -8.5667953e-02
  9.9295072e-02
 -2.2128829e-01
 -3.7924862e-01
 -1.9650894e-01
 -1.3190369e-01
 -1.3061911e-01
  1.9751173e-01
  2.5342181e-02
  1.1721823e-01
  1.6104836e-02
  2.9147747e-01
  1.7205763e-01
  8.2684934e-02
 -2.9933531e-02
  1.0052022e-01
  1.0813330e-01
 -1.2766132e-02
  4.7862001e-02
 -1.2842014e-01
  2.8168035e-01
 -8.5107625e-02
 -5.4356039e-02
  3.1664267e-01
 -1.0341066e+00
  6.1068141e-01
 -1.5726750e-01
 -3.1327283e+00
  4.6354353e-01
  2.6381049e-02
 -2.3676484e+00
  1.8529971e+00
 -3.9973669e-03
 -1.1348095e+00
  9.7798580e-01
 -1.2891544e+00
  3.3398995e-01
  1.2618020e+00
 -2.1998703e+00
  1.5599140e+00
 -3.3075795e+00
 -4.1536536e+00
  1.1747785e+00
 -1.8069658e+00
  1.9753491e+00
 -4.7442749e-02
  2.9595539e-01
 -6.3865346e-01
  1.6374279e+00
  1.6679302e+00
  1.5045269e-01
 -8.8714159e-01
 -2.4842496e+00
  1.1964648e+00
 -8.0493754e-01
 -2.8405359e-01
  2.9114541e-03
 -3.5274968e-01
  1.1254705e+00
 -2.4834044e+00
 -1.4921080e+00
 -1.2961363e+00
  7.5657922e-01
  1.8297674e-01
 -6.6422515e-02
 -2.1842261e-01
 -1.9731660e+00
  7.5746447e-01
 -3.9186072e-02
  5.6341159e-01
 -5.9479140e-02
  1.2398243e+00
  3.4877923e-01
 -1.3397564e-01
  1.4952117e-01
 -5.7745270e-02
 -4.6926349e-01
 -3.4588197e-01
 -7.9878843e-01
 -1.7480865e-02
  2.2863041e-01
  2.9411808e-01
 -2.7673423e-01
 -1.5848581e-02
  2.9602310e-01
 -3.0491839e-03
  4.8174563e-01
 -1.8810843e-01
  1.4773780e-02
  2.0595002e-01
  1.5056808e-01
  2.3428281e-01
 -1.3224136e-02
  1.5027645e-01
 -2.7536064e-01
 -2.1022783e-01
 -3.1853956e-01
 -2.1610362e-02
  2.8421667e-01
 -1.3445668e-01
  2.2056535e-01
 -2.6947302e-01
  1.2899643e-01
  1.0984119e-02
 -1.7726161e-02
  3.5146900e-02
  1.4269426e-02
  1.1447626e-01
 -8.7791510e-02
 -5.1505305e-02
  8.1304431e-01
  1.6598199e-01
  1.2153930e-02
  3.9254680e-02
 -7.8002654e-02
 -6.3765869e-02
  4.9023846e-01
  1.0005218e-01
  3.5857409e-01
 -8.2192075e-01
  1.3257483e-01
 -3.0713555e-01
  9.8385870e-02
  5.9070595e-02
  3.3508700e-01
 -7.4028976e-02
 -1.6476108e-01
  4.1143183e-02
 -2.6723939e-01
  2.2069067e-02
  1.8254834e-01
 -4.0455420e-02
  7.8762901e-01
 -7.2703212e-01
  2.5330690e-01
 -1.7405848e-01
 -1.1332703e-01
 -2.3434375e-01
  8.5337466e-01
 -3.6797586e-01
  5.0580871e-01
 -9.0474896e-02
 -1.0964915e-02
  2.4574707e-01
 -5.1206473e-02
  2.7355120e-01
  7.0325583e-02
  2.5438076e-02
  1.1396327e-01
  9.6504770e-02
 -2.3223403e-01
 -7.0550069e-02
  9.7662270e-02
  5.1412385e-02
 -2.8961122e-01
  3.4335386e-03
  7.6475881e-02
  8.2922339e-02
  2.4553780e-02
 -1.6729753e-01
  4.4710465e-02
 -2.9431444e-01
  4.1966528e-02
  2.4192435e-01
  1.4036781e-01
  3.4378389e-01
  1.7635775e-01
  8.6961105e-02
  2.2693172e-01
  5.0430022e-02
  2.6322067e-01
 -3.0860931e-01
 -2.1649417e-01
  1.1756894e-01
 -4.0248048e-01
  1.8312924e-02
 -1.7373125e-01
  1.8551426e-02
 -5.0705415e-01
  2.9869768e-01
 -3.7875764e-02
  3.1135730e-02
 -1.2411698e-01
 -5.6402415e-02
 -5.4515362e-01
  6.0089059e-02
  1.0463611e+00
  8.6642727e-03
  9.4400424e-01
 -4.9181637e-01
 -1.1479565e+00
 -3.7678857e+00
 -2.0172164e+00
 -3.7171128e-01
  6.8816423e-01
  1.4717295e+00
 -4.4801726e+00
 -7.4963850e-01
  1.6160199e-01
 -2.7388677e-01
 -2.1676860e+00
  4.2660225e-02
 -2.2781768e+00
  2.7349255e+00
 -5.9129596e-01
  1.0859229e-01
 -2.5783029e+00
  7.3554836e-02
  1.7139667e-01
  7.2344410e-01
 -1.3037196e+00
  1.4848549e+00
 -2.5502484e+00
  1.1691757e+00
  3.2577580e-01
  7.2066277e-01
  1.7157880e+00
 -1.9687632e-01
 -1.7965999e+00
 -4.3152494e+00
  2.0895107e-01
 -2.1494475e-01
 -1.5944709e+00
  2.9606929e-01
 -1.0198776e+00
 -1.3949539e-01
 -5.1585037e-02
  4.4161460e-01
 -1.1666598e+00
  2.7856021e+00
 -9.7207654e-01
 -1.0773355e-01
  3.8924897e-01
 -3.4688419e-01
  5.3941928e-02
  1.6239956e-03
  2.9546253e-02
 -7.7452046e-01
 -3.5040092e-02
  2.9152123e-02
  4.0399781e-01
 -3.5132833e-02
 -2.5873372e-01
  8.1803012e-01
 -3.3557832e-02
  1.3452642e-01
  3.1356665e-01
  3.8475852e-02
  1.5759869e-01
  6.2193966e-01
  9.4775714e-02
 -2.2118622e-02
  2.6044004e-02
 -2.7483556e-01
  3.4177291e-01
  3.0225040e-03
  1.2479249e-02
 -3.8441990e-02
  2.2279203e-01
 -2.9603577e-01
 -2.2112209e-02
  1.7397750e-02
  2.6091635e-02
 -1.2401885e-01
 -8.5122064e-03
  8.2716055e-02
 -1.0803214e-02
 -2.0509405e-01
  2.8498852e-01
 -4.4542074e-01
  2.0215968e-03
 -2.8602773e-02
  2.9923013e-01
  3.9435286e-02
  1.0724956e-01
  6.4831544e-03
 -7.1902722e-02
  2.1657886e-01
  4.5746554e-02
  1.3489518e-01
  9.7196884e-02
 -1.6961111e-01
 -1.9636361e-01
  1.5609433e-01
  1.2681668e-02
  4.0920296e-01
 -5.5864505e-02
  3.0314993e-02
  4.9451910e-02
 -3.8064245e-02
  4.9290127e-01
  9.2301376e-02
 -2.2955693e-01
  6.4497896e-02
  4.3072814e-01
 -2.0741913e-01
  6.4520276e-01
  1.7696692e-01
  2.3484059e-01
  4.2161651e-02
  1.1748735e-01
 -4.5523208e-02
  1.5137942e-01
  2.0191863e-02
  1.6899677e-01
  2.9586640e-01
 -2.1922405e-01
 -7.2031379e-02
 -1.5152681e-01
 -3.0159345e-04
  5.9844222e-02
 -2.4198984e-01
 -1.9980337e-01
 -2.0923199e-01
  5.0213587e-01
 -1.9504063e-02
  1.6259915e-01
 -8.1393600e-02
  7.0033399e-03
  4.4098206e-02
 -9.6114293e-02
 -1.0643932e-02
 -8.8687055e-02
  2.0600954e-02
  1.9420627e-01
 -5.8194771e-03
 -1.7994459e-01
  1.0427514e-01
 -4.8009761e-02
 -1.7608517e-01
  1.6323818e-01
 -6.7030138e-01
 -3.5571260e-04
  7.3651455e-02
  1.6407882e-01
  2.4923961e-01
  4.5582011e-01
 -4.3442803e-03
 -7.3343289e-01
  6.4955421e-02
 -8.4380940e-02
  6.3600525e-02
  2.5866595e-01
 -2.5549096e-01
 -1.8652843e-01
  1.5047302e-02
 -3.2571930e-02
  6.4182919e-01
 -4.4242583e-02
 -2.1562416e-02
 -6.4963967e-02
 -2.2242258e+00
 -2.5191534e-01
 -7.3590115e-02
 -2.4104450e-02
 -3.9501999e-02
 -1.7100309e-01
 -2.5488123e-01
 -4.4790703e-01
  1.6665414e-01
 -5.3176537e-02
  9.8124318e-02
 -8.4420651e-02
  1.3525775e-01
 -1.1524406e-01
  1.1302194e-02
 -4.6365473e-02
  2.5986582e-01
 -1.2495015e+00
 -6.6312887e-02
 -1.9545934e-01
  2.2747498e-02
 -2.3012859e-01
  7.3392265e-02
  1.7275188e-02
 -1.5821525e-01
 -6.2264189e-02
  1.2883499e-01
 -6.4410217e-02
 -3.6585014e-03
  4.4377702e-01
  1.4300257e-01
  1.2504030e-02
  2.6906428e-01
 -1.2597787e-01
 -2.7051526e-01
 -9.2179835e-02
  7.7786490e-02
 -1.2789029e-01
 -1.5581271e-01
 -6.6877589e-02
 -8.5725173e-02
 -3.3231739e-02
  6.8654738e-02
  1.0938140e-01
 -8.6458698e-03
  1.3668865e-01
  2.6527256e-02
 -1.6154581e-01
  5.8816366e-02
 -1.8818084e-02
 -2.9188278e-01
 -2.0224653e-02
 -7.3708282e-03
  1.4925145e-01
  7.9135939e-02
 -9.0934202e-02
 -3.0239794e-02
 -1.2389786e-01
 -1.2978269e-01
  4.7446173e-03
 -8.8819399e-02
  1.1708964e-02
  3.7227547e-01
  3.6903843e-02
 -1.7213956e-01
  2.4534868e-02
  2.0164829e-01
 -6.1703615e-02
 -6.4492196e-02
  3.1502113e-01
  1.6809253e-01
 -1.4571063e-01
  2.5707087e-01
  9.3226016e-02
  8.7638520e-02
  7.0616528e-02
 -6.8526275e-02
  7.8504607e-02
 -2.8779808e-01
  6.0513288e-02
 -9.4909978e-01
 -2.6385239e-01
 -2.2473544e-01
 -9.5977932e-02
  5.4208018e-02
 -2.8904954e-01
 -2.3663613e-01
 -4.9095180e-02
 -1.6276966e-01
 -3.2188468e-02
 -7.2601333e-02
  1.3487823e-01
  1.0763807e-01
 -6.4065129e-02
  3.1831603e-02
  3.4251601e-02
  1.1342305e-01
  9.8205805e-02
  5.4598033e-02
 -1.0325097e-02
 -4.5481622e-02
  8.2628697e-02
 -3.0548126e-02
 -7.0008934e-02
 -3.8044417e-01
  1.0738512e+00
  5.9968454e-01
 -5.3240818e-01
  6.3347834e-01
  1.0064363e+00
  3.1355157e+00
 -1.9862932e-01
 -1.4535021e+00
 -5.0823922e+00
 -9.6918240e-02
 -1.3864262e+00
  2.5752923e-02
 -5.2124876e-01
 -5.1681566e-01
  1.1952972e-01
  9.3622279e-01
  9.5947987e-01
  5.4379344e-01
  6.0050118e-01
 -9.4029769e-02
  9.2381096e-01
  6.1749902e-02
  1.5451191e-02
  1.2034034e-01
  3.3828062e-01
  8.6187297e-01
  2.7575156e-01
  7.4644190e-01
  1.4695077e-01
 -7.9448986e-01
 -1.4280841e-01
  6.5739617e-02
 -3.8404292e-01
  4.3992528e-01
  7.5878209e-01
  7.4025530e-01
  4.1333455e-01
  1.6790597e+00
  2.6279494e-01
  2.6345056e-01
  7.9860747e-02
  8.6352932e-01
 -4.9985161e-01
  1.7387620e+00
  1.3577327e+00
 -9.5898628e-02
  1.3410261e-01
 -4.4948694e-01
  9.4209192e-03
 -3.0496633e-02
 -2.0385411e-01
  3.3584428e-01
  4.7039114e-02
  2.8323900e-02
  4.8710060e-01
  1.4897147e-01
 -1.8947469e-01
 -4.3751127e-01
 -9.6535077e-04
  1.2127574e-01
 -2.7584639e-01
 -2.5627417e-03
 -1.6544899e-02
  4.5202285e-02
 -3.6592555e-01
  3.4367949e-01
  4.6046376e-02
  1.1046231e-01
 -4.8602697e-01
 -4.5175593e-02
 -4.8789963e-02
  5.6612566e-02
 -2.8664203e-02
 -8.4825419e-02
 -7.4036694e-01
  3.2164402e-02
  1.4814638e-01
 -8.9874126e-02
 -2.7243069e-01
 -2.2252357e-01
 -3.1529170e-01
  2.0881639e-01
 -1.5971012e-01
  1.6214650e-02
  4.0171165e-03
 -7.2711295e-01
  6.1267365e-02
  3.6215258e-01
  3.3445430e-01
  2.1408670e-02
 -4.8854597e-02
  2.2746423e-01
 -8.7589753e-01
 -1.2963331e-01
  3.6201182e-01
 -1.1633591e-01
  3.3955008e-01
  5.6706548e-02
  8.3921209e-02
  1.0256103e-01
 -2.1038140e-01
 -1.2237680e+00
 -1.3545716e-01
 -1.1104025e-01
 -1.4831333e-01
  7.1328007e-02
 -3.4205716e-02
 -4.4446405e-02
  8.7157685e-01
 -8.9668828e-01
  2.2422083e-01
 -2.6328006e-01
  3.0913955e-01
 -4.4532585e-01
 -2.7131815e-02
 -6.3892983e-02
  7.5159110e-02
  9.9171706e-02
  1.5761767e-01
 -9.8453417e-02
 -2.5347209e-01
 -7.0935422e-01
  4.4251248e-02
 -5.2839029e-01
  2.5022104e-02
  2.3643830e-01
  1.2517906e-02
  7.7105105e-02
  6.4492919e-02
  2.0540336e-01
  4.5250398e-01
 -7.6958783e-02
  8.1284605e-02
  9.8671392e-02
  9.3764856e-02
 -3.0151272e-01
  2.5531310e-01
 -3.2885127e-02
  2.6981699e-01
  3.3971533e-02
 -1.0032253e-01
 -6.1681308e-04
  9.6279025e-02
  6.9232851e-02
 -3.9096892e-01
  2.3347959e-01
 -1.3482043e-01
  4.6737731e-02
  3.0949512e-01
  1.8325023e-01
 -2.2486678e-01
  8.0147572e-04
  6.7149043e-02
  3.7629509e-01
 -7.2412223e-02
 -1.0904705e-01
 -5.2896655e-01
  3.4489095e-02
 -1.0117164e-01
  8.2206704e-02
 -7.2452009e-02
  1.7254461e-01
 -8.0367911e-01
 -3.7101880e-01
 -1.2202147e-01
 -9.5646434e-02
 -6.2352169e-02
  3.1433523e-01
 -9.8078381e-03
  4.0716651e-01
  4.8296567e-02
 -4.1336715e-02
 -3.9066842e-01
  1.2784107e-01
  4.1669163e-01
  8.8533208e-02
  9.9796861e-02
 -4.7709033e-01
  2.8786036e-01
  3.9533734e-01
  8.6053856e-02
  1.9088817e+00
 -1.1706021e-01
 -8.7753665e-01
 -2.8782439e-01
  4.5490000e-01
  2.4698403e-01
 -5.9680780e-03
  3.1260263e-02
  3.3386379e-01
 -2.7056688e-01
  3.0581820e-01
  5.6399900e-02
 -1.3521681e-02
 -1.6307166e-01
 -2.6405875e-02
 -2.2664593e-01
 -4.6609515e-01
  1.4350241e-01
 -3.1797773e-01
 -1.5102272e-01
 -3.3941630e-02
  7.1012676e-03
 -3.9053190e-02
  1.8137816e-01
 -9.0237343e-01
  3.1005996e-01
 -5.7216547e-03
 -9.7927517e-01
 -1.8710431e-01
 -1.3742708e-01
 -2.3185243e-01
  4.3945216e-02
  2.6607785e-01
 -2.5048122e-01
 -3.2871734e-02
  1.3266785e-01
 -1.2764367e-01
  5.8855925e-02
 -1.7373106e-01
  6.4947742e-01
  6.8443991e-02
 -1.0295656e-01
 -9.1620699e-02
  1.1446209e-01
 -2.3665622e-01
 -1.7961551e-01
  7.1028650e-02
 -2.5862452e-01
 -1.8412764e-01
 -7.9546766e-03
  2.4823093e+00
 -5.1331764e-01
 -1.6153546e-01
  5.3970668e-02
  4.4206835e-02
  4.2317588e-02
  2.1852660e-01
 -2.0992178e-01
  2.4849328e-01
  2.3003688e-01
 -1.8630795e-01
  1.6027218e-01
  1.9901820e-01
  1.2118307e-01
 -6.7168623e-02
 -1.9072756e-02
 -8.2570221e-03
  1.8563438e-02
 -3.8437746e-02
 -1.5270704e-01
 -1.8642406e-01
 -3.6489144e-02
 -1.0673486e-01
 -1.2254575e-01
 -1.0405171e-01
 -3.9300501e-02
 -5.5083409e-02
 -2.1997608e-02
  8.3617389e-02
 -4.5746159e-02
  2.6410738e-01
  5.7017416e-01
 -1.6462827e-01
 -1.3644034e-01
  2.4083132e-01
 -8.8917799e-02
  2.4817847e-02
 -1.1617359e-02
  1.0450467e-01
 -4.0149793e-01
  2.2949509e-01
  9.2574304e-01
 -1.2063511e-01
  6.4307861e-02
  1.5397571e-02
  1.6792303e-01
  6.1976522e-01
 -8.2807407e-02
  1.2968090e-01
  5.2212782e-02
  5.5373903e-02
 -1.3646424e-02
 -1.7968431e-01
 -4.4937201e-02
 -1.5286253e-02
  4.6171844e-03
  4.7969609e-01
  8.2807235e-02
  2.6239460e-02
  2.1055733e-01
  2.3161590e-01
  2.4543470e-01
 -8.3915159e-02
  6.7219153e-02
  1.0630926e-02
  1.0573241e-01
  1.7235043e-02
  2.8388265e-01
  1.5443175e-01
 -1.2375215e-01
 -4.6733013e-01
 -5.1220405e-01
 -1.1320803e-01
  2.1086868e-02
  1.8436021e-01
  1.3708784e-01
  7.0971459e-02
 -2.9246330e-02
  8.2281500e-02
  1.1133772e-02
 -1.5687747e-01
 -2.5275552e-01
  6.4909175e-02
 -1.8528016e-02
  3.0925053e-01
  1.4697038e-01
  3.8052071e-02
  7.5987466e-02
 -2.1140281e-02
 -1.3822752e-01
 -1.4693487e-02
  1.5888560e-01
  2.2617234e-01
 -3.4366044e-01
  6.7968005e-01
 -7.4923348e-01
  4.0130535e-01
 -2.6132941e-01
  4.3266911e-02
  3.2014430e-01
  2.5919691e-02
 -2.4339834e-01
  8.7584579e-01
 -1.6841267e-01
 -7.1371406e-01
 -3.1938428e-01
  7.6405764e-02
  5.5010825e-02
  1.3133822e-01
  1.6227880e-01
  3.4278587e-02
  1.7079180e-01
  3.3600485e-01
 -1.0504343e-01
 -2.4240312e-01
  9.2058003e-01
 -1.3375856e-01
  4.0234063e-02
  1.2344103e-01
  1.3984988e-02
 -1.9129750e-01
  1.2313196e-02
  1.4334641e-01
 -6.6337198e-01
  8.7522417e-02
  4.0678695e-02
 -2.0701805e-01
 -2.7089819e-02
 -3.4561777e-01
 -4.9330053e-01
  3.3211130e-01
 -1.1639365e-01
 -8.7257773e-02
 -5.8212411e-02
  9.6954837e-02
 -1.1224696e-01
 -2.1401843e-01
  1.3091704e-01
  1.2634975e-01
  1.0247780e-02
  6.1835879e-03
  1.0212953e-01
  6.9926269e-02
 -4.5367727e-01
  2.7353058e-02
  5.0069809e-02
 -3.8381875e-01
  7.2323710e-01
  7.2197117e-02
 -1.3044124e+00
 -1.2399063e-01
 -3.0620143e-01
  1.0465898e-01
 -4.3612438e-01
  1.6022590e-01
 -6.4140134e-02
  3.7199967e-02
  1.9684003e-01
  1.4621095e-01
  1.1896396e-01
  4.0068552e-03
 -2.1002908e-01
  1.5347376e-01
 -9.2463531e-03
 -1.2012312e-01
  9.4735317e-02
 -6.1097383e-02
  4.0079281e-01
 -2.6080316e-01
  2.2177592e-01
  4.0590283e-02
 -4.3303528e-01
  2.9953653e-02
 -1.1917835e-01
 -6.4336002e-02
  1.2299254e-01
  1.3853088e-02
 -1.9312544e-01
  1.5905473e-01
  1.5166233e-01
  5.3777717e-02
 -1.8411759e-01
 -4.9475454e-02
  2.0970011e-01
  1.5790613e-01
 -2.1257252e-04
  3.1492542e-02
 -1.6170645e-01
 -8.8783249e-02
 -7.0513606e-01
 -8.3507426e-02
  4.1285507e-02
 -6.4340025e-02
 -5.0748602e-02
  1.8418580e-02
  8.5511908e-02
 -3.7465739e-01
 -2.8523507e-02
 -2.4900002e-02
  1.6511384e-01
 -1.3023403e-01
  6.2405521e-01
 -2.2539444e-01
  3.8053158e-01
  5.7456303e-01
  5.2379016e-03
 -1.6083948e-02
 -1.4586071e-02
  4.9168706e-02
 -1.6127615e-01
  1.6082734e-01
  1.6097263e-01
 -2.5039828e-01
 -8.2852513e-02
 -2.5566173e-01
 -7.4434534e-02
 -1.2769267e-01
  3.7616238e-02
  1.9846562e-02
  7.1243115e-02
 -1.5015419e-01
 -3.1846568e-02
  6.0118586e-02
 -7.9240009e-02
 -3.2860685e-02
 -1.8844843e-01
  9.3764149e-02
 -4.1135475e-03
  2.2218835e-02
 -1.3083144e-01
 -1.8899317e-01
 -1.1494609e-01
  8.2142189e-02
  3.8172118e-03
 -8.7827653e-02
 -1.1664974e-01
  3.6396623e-01
 -4.0260188e-02
 -3.5684276e-02
  1.0802729e-01
 -2.9673699e-01
  1.9606866e-01
  2.6143437e-02
 -2.1901704e-02
  9.0969339e-02
  1.5582450e-02
  2.0725396e-02
 -9.9550776e-02
 -1.0412264e-01
 -6.2416494e-02
  3.4645438e-01
  3.1830698e-01
 -5.5964971e-01
  5.9607103e-02
 -4.6186928e-02
  1.9894265e-02
  4.7408065e-01
  9.7135983e-02
  3.4201500e-01
 -1.2075240e-03
 -2.3878814e-01
  1.9167331e-01
 -5.6805670e-02
 -1.2498137e-01
 -3.9907098e-02
 -1.9532585e-01
 -4.0607732e-02
  4.4592608e-02
  1.9462064e-01
  1.1582019e-02
  1.6820315e-01
  4.2002004e-01
 -3.3153735e-02
 -2.0143762e-01
 -4.3842643e-02
 -1.0639486e-01
  5.2283928e-02
  1.4976156e-01
  5.7694267e-02
  1.6871907e-01
 -6.7980357e-02
  3.0649185e-01
  8.5800990e-02
 -1.0316046e+00
  2.0071555e-02
 -4.2173885e-02
  8.5050225e-02
  3.2253724e-01
  7.9629794e-03
 -8.1389025e-02
 -9.1984883e-02
  1.8330520e-01
 -1.3224088e-01
 -1.6190059e-02
  9.3244381e-02
 -1.4771201e-02
 -4.4338100e-02
  2.0095378e-01
 -7.8082874e-02
 -1.8568452e-01
 -1.4383736e-01
 -8.3502120e-01
 -2.1084312e-01
  5.5087996e-01
  1.1705420e-01
  4.5833234e-02
  7.7062622e-02
 -1.6721947e-01
 -9.3159214e-02
  1.5298261e-01
  1.1230545e-02
 -2.4458718e-01
 -2.9699382e-01
  1.7383781e-01
  7.8054324e-02
 -1.1934914e-01
 -6.0055131e-01
  2.6473928e-02
  3.0095641e-02
  9.8718084e-02
 -6.1025959e-02
  2.6012508e-02
 -1.0601632e-01
  7.4822590e-02
 -6.7733414e-02
 -6.1992668e-02
 -3.8032624e-01
  9.2018181e-01
  5.4282939e-01
  4.1509399e-01
 -8.1618920e-02
  3.1991914e-01
 -9.6832193e-02
 -4.6526611e-01
 -1.9804552e-02
  1.0975962e-01
  1.6232899e-01
 -3.8043070e-01
  4.2499539e-02
 -5.3635269e-02
 -5.9451018e-02
  2.4435727e-01
  7.8591689e-02
  2.7663875e-02
 -1.8663780e-01
 -1.6481431e-01
  3.4140232e-01
  1.2740093e-01
 -2.4232054e-01
  9.7558267e-02
  3.0810369e-02
  1.2702391e-01
 -2.0900203e-03
 -1.5003157e-02
  1.3681841e-01
 -1.2226208e-01
  1.2407628e-01
  1.1425076e-01
  4.8076823e-02
  9.3364656e-02
 -1.9650559e-01
 -1.3085447e-01
  9.6488066e-02
 -4.4233060e-01
  3.4841251e-01
 -6.4972097e-01
 -6.5085962e-02
 -1.8009324e-01
 -5.0192863e-02
 -1.5033826e-01
  3.2640168e-01
  2.0314233e-02
 -8.8486403e-02
 -1.6268127e-01
  1.1421818e-01
  6.5463275e-02
  1.2825993e-01
 -3.8293255e-03
  1.1589874e-01
  1.3665809e-01
 -2.3955059e-01
 -1.7326322e-01
 -8.6544859e-01
  5.5264685e-02
 -5.1116371e-01
 -1.5078065e-01
  7.0921367e-01
  4.6912428e-02
  3.6073763e-02
  1.7794212e-02
  1.0921238e-01
 -4.5321148e-02
 -5.4577716e-02
  7.9013944e-02
  3.5439613e-01
  6.9149178e-01
 -3.2411870e-01
  4.3102488e-01
  4.3544376e-01
  9.9481702e-02
 -1.3293758e-01
  2.7228749e-01
  8.1556916e-01
  8.4222466e-02
  1.2246480e-01
 -1.3152600e-02
 -3.8855355e-02
 -3.6079824e-01
 -1.6527762e-01
 -5.2866870e-01
 -6.9375098e-01
  4.4992235e-01
  5.8743462e-02
 -1.9564199e-01
  2.9322910e-01
 -6.8693005e-02
  5.7853758e-02
  2.3898287e-01
  2.5725445e-01
 -7.0907223e-01
 -2.4938929e-01
  1.9073592e-01
 -1.5269935e+00
  6.1554361e-02
 -6.9202149e-01
 -1.3063663e-01
  3.3400473e-01
  7.5423650e-02
  3.0135888e-01
  3.0297616e-01
  2.5632820e-01
 -4.3884373e-01
  1.6426500e-02
 -6.6236961e-01
  4.0981892e-01
  8.0420837e-02
 -7.8906399e-01
 -2.9293475e-01
 -4.9182568e-02
  1.0347904e-01
  1.9242417e-02
 -1.4586648e-01
 -2.4918155e-01
  6.8730748e-01
 -3.9415157e-01
  4.9353784e-01
 -7.4954039e-01
  7.5907735e-03
  3.8099480e-01
 -6.7658253e-02
  1.6465124e+00
  3.2921290e+00
  5.6241626e-01
  1.4314170e-01
 -6.4568645e-01
  1.4128186e-01
  4.9944332e-01
 -1.8044214e-01
 -5.8007216e-01
  2.3157509e-02
  1.8339102e-01
  8.4448839e-03
  1.9900018e-01
 -2.9521719e-02
 -4.0986657e-02
  1.3252205e-01
  4.8661958e-02
 -4.5388386e-01
  7.6062572e-01
 -1.1817315e-01
 -4.3370634e-02
 -4.5699450e-01
  3.1408527e-01
  4.6207994e-01
  1.0504021e-01
 -2.3312245e-01
  1.0901613e-02
  1.1101484e-01
 -1.9935550e-01
 -1.1710450e-02
 -7.5818516e-02
  6.5538347e-02
 -2.4983424e-01
  8.2764141e-03
 -2.5152910e-01
  4.0335456e-01
  2.2090709e-01
  3.1155325e-02
  7.3455334e-01
  8.0104828e-02
 -4.3998379e-01
  4.8280835e-02
 -4.7811612e-02
 -1.8549770e-01
  6.9736049e-02
  1.3328154e-01
 -3.6333069e-01
  1.2727844e+00
  8.1678256e-02
 -2.0269739e-02
 -1.1576147e-01
 -1.6258242e-02
  3.3890471e-01
  3.2242644e-01
 -3.2523805e-01
  2.2149939e-02
 -1.8992536e-01
  6.8454504e-01
  2.9100806e-01
  1.2131786e-01
 -1.4439502e-02
  5.9316605e-02
 -2.4452886e-01
 -2.8227195e-01
  8.4591232e-02
 -1.4324333e-01
  1.2841678e-01
 -3.7131986e-01
 -3.4859735e-01
  8.0342971e-02
  2.5600386e-01
 -1.2042552e-01
 -4.5567167e-01
 -1.0178071e-01
  1.7546168e-01
  3.8047972e-01
 -1.8542867e-02
  2.9172856e-01
  8.1534743e-02
 -2.3872004e-01
  1.3001484e-01
 -2.1756582e-02
 -2.1775888e-01
 -8.4338486e-02
  7.8947887e-02
  1.4417753e-01
  6.2140979e-02
  3.1811517e-02
  1.2485975e-01
  2.8133935e-01
 -3.4745052e-02
 -1.7304046e-01
  5.8873985e-03
 -3.6010036e-01
  1.4011213e-02
  3.1076476e-01
  1.9808714e-01
 -1.0130154e-01
 -1.9737615e-01
 -1.9194104e-01
  2.2503880e-01
 -1.0265373e-01
 -1.0289673e-02
 -1.2044144e-01
 -1.4822599e-02
  3.5909280e-02
 -6.7742512e-02
 -2.6911110e-01
 -3.0992988e-02
 -9.4832860e-02
 -5.7073608e-02
  2.0289154e-01
 -3.3784431e-01
  1.7422909e-01
 -3.0756283e-01
  1.1179834e-01
 -8.1759714e-02
 -9.3538925e-02
  3.1572964e-02
  1.8428645e-01
  2.7044094e-01
  1.4305707e-02
  2.1361239e-01
  7.8297898e-02
  1.4075564e-01
 -6.9280207e-02
 -2.6997635e-01
 -8.5933715e-02
 -2.3790424e-01
  3.1700265e-01
 -7.0968240e-02
  2.4788283e-01
 -2.9797319e-02
 -2.2704388e-01
  5.0538875e-02
  1.6721924e-01
 -5.9340846e-02
 -5.7853919e-01
 -5.6047998e-02
 -3.1676853e-01
 -7.4119717e-02
 -3.4524746e-02
  3.1922874e-01
  2.2684190e-01
  1.0115623e-01
 -7.6310068e-02
 -5.9246980e-02
 -2.2526729e-01
  8.1128836e-02
 -1.9552921e-01
  5.5964487e-03
  2.6027563e-01
 -3.8273435e-02
 -2.3484468e-01
  1.1090166e-01
  1.9542123e-01
 -5.3968298e-01
  1.2418639e-01
  1.1683883e-01
 -2.6044288e-01
 -2.8644329e-01
 -9.0273678e-02
  7.8862920e-02
  2.2614908e-01
 -1.6816801e-01
 -9.8022409e-03
  1.4462456e-01
  5.9945747e-02
  4.7028989e-02
  1.8590158e-01
 -5.2491397e-01
 -1.0369885e-02
 -6.7527992e-01
  1.9482882e-01
 -2.8491899e-01
  4.1453272e-02
  2.1680351e-02
  4.0962704e-02
  2.1275753e-01
  2.8285643e-02
  1.2264704e-01
 -1.9012323e-01
  3.0395679e-02
  1.6503516e-01
  8.5646830e-02
  1.8263201e-01
  9.0497151e-02
  1.4293611e-01
  3.3364873e-02
  1.3070408e-02
  4.0811457e-02
  9.0999752e-02
 -4.2718835e-05
 -1.5946500e-01
 -4.9733481e-01
 -4.2093739e-01
 -1.8523175e-01
  4.0232390e-02
 -3.7046898e-02
  1.3853398e-01
 -5.2400321e-02
 -1.6529085e-01
 -2.1828580e-01
 -8.5790075e-02
  4.3227077e-01
 -8.2614375e-03
 -2.9297349e-01
  6.9253117e-02
  1.7396046e-02
  2.8994730e-01
  2.8008511e-02
 -3.3395469e-01
 -1.8643008e-01
 -9.2050970e-02
  1.5244438e-01
 -1.7758933e+00
 -1.9916970e-02
  3.1832859e-02
 -1.6844751e-02
 -4.9422655e-02
 -1.1495827e-01
 -6.6973418e-01
 -2.8092572e-01
 -3.0840758e-02
 -1.1374207e-01
  1.8593842e-01
  1.4985093e-01
 -2.9237297e-01
 -5.6650609e-02
  1.9216530e-01
 -1.8982339e-01
  6.5767139e-02
 -1.9963142e-03
 -3.9825134e-02
  3.9730760e-01
  5.6793030e-02
  1.9875839e-01
 -8.1413651e-01
 -4.0643525e-01
 -7.7057116e-02
 -1.6628070e+00
 -1.9616023e-01
  1.8239696e+00
  1.3282937e-01
  2.4727163e+00
 -2.4518247e+00
 -3.8599735e-01
  4.2892766e+00
 -9.5465314e-03
 -7.2183073e-01
  1.2022294e-01
 -2.1015315e+00
 -2.0304303e+00
 -9.6639776e-01
 -5.4039496e-01
 -1.5048142e-01
  4.5415762e-01
  2.1685345e-01
  5.5742487e-02
 -3.2976758e-01
  5.7263696e-01
 -3.7658584e-01
 -6.7008793e-02
 -4.5742497e-01
  9.5201522e-01
 -1.1040898e-01
  1.9923952e+00
 -2.4330243e-01
 -3.4427468e-02
 -4.9819671e-02
  1.1560708e+00
  5.9360012e-02
  1.2801222e+00
 -1.3914689e-02
  2.4897392e+00
  8.3050627e-01
  4.9082664e-01
 -9.8610520e-02
  2.0018262e-01
  3.8323379e-01
 -1.8104299e+00
  2.4055952e-01
 -5.2481826e-02
 -6.1706918e-01
 -2.0945047e-01
  6.0681826e-01
  1.3395879e-01
 -2.7028065e-02
 -2.7883117e+00
 -1.0530725e+00
 -1.4836594e-01
 -4.0509155e-01
  1.1218243e-01
  1.2511656e-01
 -3.8020331e-02
  1.6351379e-02
 -1.5971987e-01
  4.5379794e-01
 -5.4342482e-02
  4.9136344e-02
 -5.0379694e-02
 -1.0518853e-01
  1.2426670e-02
  1.6304922e-01
 -2.1690597e-01
 -1.7867172e-01
 -2.8047633e-01
 -1.9449824e-01
 -3.9873123e-02
  1.8755655e-01
 -3.8188670e-02
 -5.2235261e-02
  1.2754336e-01
 -9.8417610e-02
 -3.6673293e-01
 -1.6887952e-01
  1.9591776e-01
 -2.3027390e-01
  1.3784288e-01
 -4.7435369e-02
 -1.1054978e-02
  5.6406405e-02
  3.3532515e-02
  1.7660171e-01
  2.9226944e-01
  4.5403384e-02
 -1.2337959e+00
 -1.6480009e-01
 -2.9067943e-01
  1.0371836e-01
  7.2628170e-02
 -2.1207684e-01
  1.2842010e-01
 -1.8948984e-01
 -1.9819406e-01
  2.2119103e-02
 -1.9612523e+00
  7.3308066e-02
 -1.2528631e-01
  9.9322021e-02
  1.9714145e-01
 -1.7694606e-01
 -3.7299535e-01
  1.0233757e-01
 -2.5921100e-01
  2.0957123e-01
 -1.0275480e+00
 -3.2907134e-01
  2.4633398e+00
 -2.8440497e+00
  1.7375203e+00
 -1.7507457e+00
  6.8263561e-01
 -4.9891829e-01
  4.1868228e-01
  2.9693334e+00
  2.6055751e+00
 -2.5907531e-01
 -6.0931712e-01
 -5.3417486e-01
  4.5903392e+00
  3.6800978e+00
 -3.4699222e-01
  1.6580391e+00
 -1.1626660e+00
  2.6369739e+00
  2.0607372e-01
 -1.2468636e+00
  7.9440302e-01
  1.0221212e+00
  3.9343163e-01
 -3.2980585e-01
  8.7605184e-01
  1.8191926e-01
  1.9127158e+00
 -4.3723050e-01
  7.6566964e-02
  9.6929306e-01
 -1.8260034e+00
  6.6740453e-01
 -6.9105044e-02
  1.6193140e-01
  4.6273381e-01
  1.9052882e-01
 -9.8425141e-03
 -3.2045823e-01
 -1.2863041e-01
 -9.1267878e-01
 -1.0340648e+00
 -3.5619181e-01
 -4.2376912e-01
 -2.2909966e+00
 -3.7564915e-01
  1.0761292e-01
 -8.8489257e-02
  7.7746339e-02
 -7.2048336e-02
 -2.1688957e+00
 -2.0973966e-02
  4.0908885e-01
 -9.8984197e-02
  1.4979112e-01
  1.1030490e+00
  7.6009780e-02
 -3.9373986e-02
 -8.5552388e-01
 -7.9282737e-01
  1.1703395e+00
  2.1325216e+00
 -1.4267566e+00
 -2.7735579e+00
 -9.0718877e-01
 -1.0501987e-01
  1.7777240e+00
 -1.8343878e+00
  1.8668993e+00
 -1.8889987e+00
  9.6452284e-01
 -2.6015093e+00
 -3.5481379e+00
  6.3098836e-01
 -4.1543949e-01
  1.0156515e+00
 -1.7994192e+00
  1.4408305e+00
  3.2815726e+00
 -1.2193450e+00
  1.7193545e+00
 -1.8650094e-01
  1.4977862e+00
 -1.2171974e-01
 -3.8112029e-02
 -1.2847853e+00
 -1.2346592e+00
  3.4571116e+00
  1.7395805e+00
 -3.5485610e-01
  2.1139646e+00
  4.3854480e+00
  1.8135542e+00
  3.1987386e+00
 -1.7240204e-01
 -1.9610770e+00
  1.6693021e-01
  5.2267390e-01
  6.7359247e+00
 -1.5390551e+00
 -2.0132904e-01
  2.8088215e-01
 -7.1121611e-02
 -3.8576701e+00
  3.8421664e+00
  3.1769855e+00
  2.0203273e-01
 -3.2072563e+00
  1.8450516e+00
 -4.4028056e-01
 -7.5588092e-02
 -1.2817578e+00
  9.0218848e-01
 -5.0290251e-01
 -4.9785048e-01
  7.0085138e-02
  1.9223763e+00
  4.0486744e-01
 -5.5749476e-01
 -3.9932664e-02
 -7.2256923e-02
 -3.0823645e-01
 -3.4317711e-01
 -1.3743123e+00
  2.9507241e-01
  7.1180493e-01
 -7.4979854e-01
 -1.2852776e-01
 -1.1296785e-01
  1.6012527e-03
  1.7905374e-01
 -4.4384304e-01
 -7.6453644e-01
 -2.2308566e-01
 -1.7646010e+00
  1.5150210e-01
 -2.6673838e-02
 -1.0725936e-01
  6.5030771e-01
 -1.1654285e+00
  4.6312526e-02
 -8.2945579e-01
 -3.1260437e-01
  2.6932628e+00
 -7.9179496e-01
 -3.9886348e-02
  1.9314755e-03
 -9.8659062e-01
  3.6911207e-01
 -1.1198426e+00
 -7.0583820e-01
 -2.2924645e-01
  3.6953571e-01
 -1.0187869e+00
 -2.5129631e-01
  3.9421827e-02
  3.7730053e-02
 -2.6703852e-01
 -6.3948178e-01
 -3.0572194e-01
 -2.7451891e-01
  1.5810240e-02
  1.6283895e-01
 -1.7827687e-01
 -6.8553619e-02
 -2.9093187e-02
 -1.9698793e-01
 -2.4451237e-02
 -5.8309589e-02
 -3.0638892e-02
  9.4152726e-03
  2.9122343e-02
  7.2660112e-01
 -5.1621497e-03
  5.2013602e-02
 -1.4652883e-01
 -1.0432215e-01
  9.4715036e-02
  6.3628978e-01
  3.5184065e-01
  3.1697676e-01
 -1.6076241e-01
  9.0620726e-02
 -3.6275670e-02
  1.0383753e-01
 -1.5271555e-01
  1.0259402e+00
  9.4405590e-03
 -3.0648224e-02
  1.4849676e-01
  1.2731753e-01
  2.0420047e-02
  1.4276879e-01
  4.4191964e-02
  1.6487096e-01
  5.1149487e-01
 -2.0551538e-01
  1.3194650e-01
  1.7986761e-02
 -1.7447002e-01
 -3.5824779e-01
 -1.1712003e-01
  1.9040531e-01
 -2.7524848e-03
 -1.5326873e-03
  8.5392691e-02
 -8.8833764e-02
  5.0024420e-01
 -1.4509721e-01
  1.2158452e-02
 -1.1555642e-01
 -3.3427405e-01
 -1.1136287e-01
 -1.5721612e-01
 -1.6060896e+00
  4.5001160e-02
 -6.2463152e-01
 -1.5667833e+00
  2.4690534e-01
 -1.4948858e+00
 -1.0579871e+00
 -3.1916872e-02
  1.1006428e-01
 -1.2037365e+00
 -1.4871559e-01
  4.3196616e-01
  1.1365366e+00
  3.4593359e-01
 -4.9673161e-01
  4.8672518e-01
  2.5634925e+00
 -1.2772557e+00
 -2.5128903e+00
 -4.4585308e-01
 -5.8612722e-01
 -1.7997496e+00
  2.3834133e-01
  4.4274908e-01
  2.4468324e-01
  7.7062078e-02
 -3.1682986e-01
  5.7109851e-01
 -9.6570200e-01
  2.0174971e-01
 -2.6126790e-01
  2.5094192e-02
 -2.0380788e+00
  2.3655221e+00
  2.1652068e-01
 -2.9863880e+00
 -2.2483030e-01
  6.1985850e-01
  2.1749525e+00
  5.4910731e-01
  1.0179823e-02
 -2.1038590e-01
 -1.4189752e+00
 -5.2912241e-01
 -2.4957752e+00
 -3.2563895e-01
 -1.1099589e+00
  6.2584929e-02
  2.4363379e-01
 -1.1894324e-01
  9.5558025e-02
 -5.6002680e-02
 -3.3430725e-01
 -4.5689023e-01
  1.0408645e-01
  3.0221966e-01
  1.7722663e-01
  1.1453632e-02
 -2.7569109e-01
 -1.4220312e-01
  1.1927144e-01
  1.5516967e-01
 -1.0242277e-01
 -2.7092415e-01
  1.3714826e-01
 -2.1668303e-01
 -3.4017348e-01
 -1.2392928e-01
 -4.8076559e-02
  4.7498757e-01
  5.1659547e-02
 -1.6517079e-02
 -2.2505558e-01
  3.3614442e-01
  2.4563681e-01
  6.2037554e-02
 -1.2705348e-01
 -3.3152256e-02
  8.9225031e-02
 -3.8765374e-01
 -8.9580894e-02
 -2.6918170e-01
  3.5052270e-02
 -3.6646720e-02
  7.5920448e-02
  3.0274349e-01
 -1.6121298e-01
 -4.1219059e-01
  3.0747929e-01
 -7.3459506e-02
 -3.3775449e-01
  7.9254955e-02
 -4.6276089e-02
 -2.3219423e-01
  1.3490990e-01
 -8.8223942e-02
 -3.9110575e-02
 -7.1538292e-02
 -6.9035396e-02
 -9.9965613e-03
  1.0221160e-01
  2.1039401e-01
  1.5975252e-01
  1.3082244e-01
  5.8617853e-02
  1.4350459e-01
  6.2939465e-02
 -1.3432765e-01
 -7.1082346e-02
 -1.3611963e+00
 -8.2597379e-03
 -1.4426169e-01
  1.2843996e-01
 -2.7547836e-01
  6.0277700e-01
  4.1807258e-01
  4.2508274e-02
 -4.4961831e-01
  6.0059179e-02
 -7.0086665e-02
  9.4624616e-02
  4.8605618e-03
  1.6516568e-01
  8.6950772e-03
 -3.3067565e-02
 -1.0924773e-01
  9.5604971e-02
 -5.8398701e-02
 -1.6146307e-01
 -7.5356834e-02
 -3.7718737e-01
  2.2109580e-01
  4.8014723e-02
  1.1642238e-01
  5.1544644e-02
 -8.8653341e-02
  2.0060334e-01
  1.4235631e-01
  1.2057570e-01
  1.0033909e-01
 -1.8274292e-02
 -1.9657050e-01
 -1.4494744e-01
  1.2703967e-01
  1.1474517e-01
  5.9435897e-02
  5.0834799e-01
 -2.8051522e-02
 -5.8488186e-02
  6.5644905e-02
  6.9452841e-03
  2.0104051e-01
 -1.5372077e-01
  2.2044285e-01
 -4.1802756e-02
  2.3926616e-01
  4.6496619e-02
  8.2076061e-01
 -2.4218900e-02
  3.8463700e-01
  1.3475603e-01
  3.6801357e-02
  6.6777831e-01
  2.4934294e-02
 -1.1012378e+00
 -9.0200156e-02
  5.3808536e-02
  4.9208498e-01
  3.2995930e-01
 -1.3161652e-01
 -5.9135967e-01
  1.0065071e-01
 -1.2883897e-01
  2.4397904e-01
 -1.7489293e+00
 -8.0365591e-02
  2.8281963e-01
 -1.8012105e-02
  2.4054347e-01
 -8.5627280e-02
 -9.3111396e-04
  1.3224836e-02
 -1.0137336e+00
 -2.8284627e-01
 -2.6644310e-01
 -1.7808700e-01
 -4.5426238e-02
 -2.8754267e-01
  4.0352765e-02
 -6.0858898e-02
  1.2817349e-01
 -3.9850630e-02
 -3.8123360e-01
  5.5437256e-02
 -2.5308894e-02
 -1.6326478e-01
 -2.8273702e-02
  9.4965231e-03
 -2.5491450e-02
 -8.2656197e-02
  4.2856209e-02
  2.4771231e-01
  7.9544239e-02
  9.2869468e-02
  9.4965279e-02
 -2.7558239e-02
 -1.6835706e-02
 -3.5177594e-01
  6.1145954e-02
 -8.2911432e-02
  3.7590298e-01
  3.3839636e-02
 -1.3672660e-01
  1.9345248e-01
  2.3803379e-01
 -1.8370630e-01
  5.2286278e-02
 -1.4353701e+00
 -4.3474114e-01
 -2.2515221e-01
  3.9031722e-02
 -7.3998809e-02
  8.2059428e-02
 -6.2695503e-02
  1.0881871e-03
 -1.2003156e-01
 -2.8626573e-01
 -2.0565064e-01
  1.4268032e-01
 -1.1540238e-01
 -6.5926030e-02
  4.0503759e-02
 -7.2289944e-01
  3.2324353e-01
 -1.7189868e-01
  8.3234429e-02
 -4.7512469e-01
 -3.6393740e+00
  4.2488586e-02
 -1.4907202e-01
 -7.9427108e-02
  2.7902514e-01
 -5.3798959e-02
  2.9993135e-01
 -7.9815745e-02
 -2.6675951e-01
  3.9808266e-02
 -4.0943719e-02
  7.1340315e-02
  1.5654080e-03
 -1.1510780e-01
 -7.8413278e-02
  2.2455172e-01
  1.5237342e-01
  1.1873591e-01
  5.8763933e-01
  1.0394420e-02
  2.5961816e-01
 -1.7677017e-01
 -1.6249114e-01
 -5.4219902e-02
 -1.1254230e-01
  8.5539773e-02
 -1.2092499e-02
 -1.5862092e-02
 -8.0879599e-02
 -2.1382803e-01
  2.7746683e-01
  2.7885920e-01
 -2.0021118e-01
 -5.0374656e-04
  3.9902087e-03
 -6.0194606e-01
 -7.8449454e-03
  8.5105568e-02
 -4.3918032e-02
 -2.0680495e-01
  1.4916103e-01
 -2.0530528e-01
 -1.8972358e-01
  1.6000010e-02
  1.3897631e-01
  2.7591953e-01
 -1.4893039e-01
  1.9416417e-01
  4.4958284e-01
 -8.5084196e-03
 -1.2396316e-01
 -1.2470496e-01
  9.9378191e-03
 -3.3734921e-01
  1.5628308e-01
  3.5892036e-02
 -1.7630646e-02
  8.6971477e-02
  8.0328286e-02
 -1.2300538e-01
  2.9176283e-01
 -9.4463341e-03
  1.9131657e-01
  4.5944329e-02
  2.4026117e-01
  2.8797612e-03
  9.4116904e-02
  1.9755551e-01
 -1.5776671e-02
 -2.4108551e-02
 -1.2460762e-02
  4.6597607e-04
 -3.9698339e-01
  1.5886106e-01
  2.8927878e-01
  3.0172834e-01
 -6.6527799e-02
  1.1417475e-01
 -1.4869712e-01
 -2.1524262e-01
 -3.2908946e-02
 -4.8131954e-02
 -6.0975678e-02
 -1.0812580e-01
  9.2411395e-03
 -3.5259560e-01
  2.8791317e-01
  1.3742770e-01
 -6.8548465e-01
  4.0120709e-01
  6.6680670e-02
  1.4215451e+00
 -7.6269925e-01
  5.9247546e-02
 -2.8318681e-02
 -1.2410874e+00
 -1.1109234e-01
 -5.5373505e-02
  6.8820685e-02
  2.8395740e-02
 -1.5774578e-01
 -2.0922150e-01
  1.8034329e-01
  1.7046776e-02
 -3.4098452e-01
 -8.2024366e-01
 -5.0749016e-01
 -1.2095629e-01
 -3.7976325e-01
  3.7751052e-01
  4.0756828e-01
 -1.3960002e-01
 -2.0568000e-01
  2.4978347e-01
 -6.7963913e-02
  2.0429695e-01
 -1.6140045e-01
 -1.3011140e+00
  2.2717904e-01
  3.1175492e-03
 -6.5990642e-02
  1.3488321e-02
 -4.0163863e-01
  2.0989131e-02
 -4.7688942e+00
  6.9256663e-01
 -2.5498734e+00
 -1.2175401e+00
 -3.2187212e+00
  5.7424601e-02
  2.8880572e-01
 -1.3595204e-01
 -1.6196541e-01
 -4.1410856e+00
 -1.5426889e-01
 -6.7386925e-02
 -5.5135560e-01
  2.7443367e-01
  1.9279498e+00
  9.7502559e-02
 -2.9049066e-01
 -8.3133155e-01
 -3.3787537e-02
 -1.4441587e-01
 -7.8782253e-02
 -1.9388717e-02
 -5.6608547e-02
  2.6771802e-01
 -2.4254131e-01
 -3.5958672e-01
  7.0615554e-01
  1.0660728e+00
 -1.2542628e-01
 -4.6705753e-01
 -2.3519230e-01
  8.4549946e-01
  3.6357707e-01
 -4.0673834e-01
 -6.0377002e-01
 -7.1838564e-01
  8.2221881e-02
 -2.6664340e-01
  9.0772249e-02
 -2.4204437e-01
 -2.6907644e-01
 -1.8275784e-01
 -2.2543930e-02
  5.4007890e-03
  2.1594727e-02
 -2.5978174e-02
  1.5480728e-02
 -1.0373956e+00
  6.4681381e-01
 -1.4622640e-02
 -2.9417749e-02
 -6.9277751e-01
  4.5581896e-02
  4.3935105e-03
  6.8689048e-02
  2.3500987e-03
  9.8172784e-02
 -3.1396881e-02
 -4.3137509e-02
  4.6705574e-02
 -7.6148689e-02
 -1.7216508e-01
  4.8004395e-01
 -6.3869888e-03
  3.6973627e-03
 -2.9976964e-01
 -4.2941904e-01
 -3.4185931e-02
 -1.1150927e-01
 -6.4702469e-01
 -2.8741429e-02
 -6.9009781e-02
  8.4563828e-01
 -6.6045392e-01
 -1.0559286e-02
  2.5224704e-02
  5.6445651e-02
 -3.7422054e-02
 -1.1536223e-01
  2.5417315e-02
 -5.3666055e-01
  5.3981590e-01
 -3.1540880e-01
  3.2215628e-01
 -2.2719314e+00
 -7.4821866e-01
  2.6821157e-01
  1.0566929e-01
  4.0034160e-02
 -7.5493044e-01
  5.4292034e-02
 -4.6132416e-02
 -2.9294661e-01
  4.9944937e-02
 -1.4316593e-01
 -1.2123387e-01
  3.5811332e-01
  2.4121012e-01
 -5.8664535e-03
  1.1420587e-01
  5.0027646e-02
  3.6005846e-01
 -3.2304000e-02
  1.1379448e-01
 -2.1174553e-01
  1.7386550e-01
  2.8309903e-01
  1.1572721e+00
 -2.2053491e-02
 -6.7130075e-04
 -4.6304975e-02
  1.7118548e-01
  8.5365966e-02
  2.2919796e-01
 -7.7032840e-01
  1.5780126e-01
  1.5453155e-03
  3.0019933e-01
 -7.5289099e-03
 -2.1092962e-02
  2.0724340e-01
 -2.8937733e-01
  7.9515819e-03
  2.5712187e+00
  7.4787706e-01
 -2.1076033e-01
  3.9231198e+00
 -4.8907527e-01
  1.1784188e+00
 -1.1380035e+00
  1.0625813e+00
 -5.0947165e-01
 -7.0368105e-01
  2.1445228e-01
 -2.1895092e+00
  6.3767153e-01
 -2.6449704e+00
 -2.7118778e-01
  8.9377564e-01
 -7.9476458e-01
  1.4550933e+00
  8.2483977e-01
 -5.6310755e-01
  1.5370374e+00
  1.1627227e+00
  6.1602944e-01
 -1.6847719e+00
 -1.2959369e+00
 -1.0088406e+00
 -1.5766928e-01
 -5.5840039e-01
 -2.0998125e+00
 -8.3699399e-01
  2.5201958e-01
 -3.8284251e-01
  5.2900761e-01
  1.2174296e+00
  1.2060050e+00
  1.1990159e-01
  4.2449540e-01
 -1.9567564e-01
  1.9572681e-01
 -1.0650090e+00
 -7.5962293e-01
 -1.2379720e+00
 -3.2552302e-01
  1.6744431e+00
  2.9558575e-01
  1.6398938e+00
 -4.9614713e-01
 -1.9315598e+00
 -2.1495676e+00
  1.6028959e+00
 -6.1507356e-01
 -4.3238658e-01
  2.0544644e-01
  9.1864830e-01
  1.7960776e+00
  2.6604903e-01
  5.8902615e-01
 -5.2773815e-01
 -9.1215444e-01
 -1.2947035e+00
  1.9908097e+00
  1.1143645e+00
  2.1437618e-01
 -6.4500505e-01
 -4.7844860e-01
  2.9748254e+00
 -3.1245846e-01
 -1.3440375e-01
 -9.7757185e-01
 -2.2788146e+00
  4.8379871e-01
  1.1601237e+00
  1.1440426e+00
 -4.6238366e-01
  2.7337267e+00
  1.3110338e+00
 -7.6235056e-01
 -1.1712898e+00
 -1.4092015e+00
  7.0838499e-01
  1.7969872e+00
  1.6673902e-01
  1.7362792e+00
  2.3996747e-01
  1.3435657e+00
 -8.3306718e-01
  1.0122466e-01
 -1.2172399e+00
  1.4175588e+00
 -2.1793914e-01
 -7.0281959e-01
 -1.3190045e+00
 -3.0758076e+00
  3.1535978e+00
  2.3820288e+00
 -7.2197664e-01
  2.6108592e+00
 -1.0116237e-01
 -6.5672064e-01
 -1.0374731e+00
  1.6805530e+00
  1.3124098e+00
 -1.7845008e+00
 -3.3192405e-01
  1.2620395e+00
  1.5912436e+00
  7.7002537e-01
 -1.0050466e-01
 -1.4907646e+00
  8.7189716e-01
 -1.8698445e-01
  2.1596655e-01
 -3.8371006e-01
  2.4513981e-01
 -7.5840640e-01
 -7.7582848e-01
  1.3161281e+00
 -4.5967984e-01
 -4.7239965e-01
  9.9494052e-01
 -1.4642433e+00
  3.6221898e-01
 -3.0655437e+00
 -1.4307870e+00
 -1.1797956e-01
  2.1342063e+00
  1.3993703e+00
  5.7207996e-01
  5.2173752e-01
  1.2720501e+00
 -1.2533273e+00
  1.3896567e+00
  2.1382439e-01
  1.0181225e-01
  3.7210295e-01
 -1.4707152e+00
  1.4474171e+00
  1.0214760e-01
 -2.6968384e+00
 -3.0052354e+00
 -1.4016522e+00
  2.2090495e+00
  2.2079690e+00
 -1.1413573e+00
 -8.7068558e-01
 -1.9430190e+00
  7.4289179e-01
 -4.3753400e+00
  9.4747680e-01
 -1.8592434e+00
 -4.7909907e-01
  2.0195537e+00
  8.3426338e-01
  1.1106083e+00
  1.1383551e+00
 -3.1837072e+00
 -7.0065057e-01
  2.3918220e-01
 -9.9511015e-01
  4.5127472e-01
  1.1187409e+00
 -1.7201415e+00
  5.8541316e-01
  8.9673355e-02
  8.9673355e-02
  8.9673355e-02
  8.9673355e-02
  8.9673355e-02
  8.9673355e-02
  8.9673355e-02
  8.9673355e-02
  8.9673355e-02
  1.2073278e-01
  1.2073278e-01
  1.2073278e-01
  1.2073278e-01
  1.2073278e-01
  1.2073278e-01
  1.2073278e-01
  1.2073278e-01
  1.2073278e-01
  2.3253836e-02
  2.3253836e-02
  2.3253836e-02
  2.3253836e-02
  2.3253836e-02
  2.3253836e-02
  2.3253836e-02
  2.3253836e-02
  2.3253836e-02
  2.2430602e-02
  2.2430602e-02
  2.2430602e-02
  2.2430602e-02
  2.2430602e-02
  2.2430602e-02
  2.2430602e-02
  2.2430602e-02
  2.2430602e-02
  1.5742067e-02
  1.5742067e-02
  1.5742067e-02
  1.5742067e-02
  1.5742067e-02
  1.5742067e-02
  1.5742067e-02
  1.5742067e-02
  1.5742067e-02
  1.0230203e-02
  1.0230203e-02
  1.0230203e-02
  1.0230203e-02
  1.0230203e-02
  1.0230203e-02
  1.0230203e-02
  1.0230203e-02
  1.0230203e-02
